. 1151386
I 761916
, 717482
the 567662
to 525873
a 343169
and 333295
of 278385
is 251530
in 250316
my 190653
it 163887
that 154674
for 145752
was 133843
have 127994
you 95259
n't 93522
`` 90666
are 90550
! 88581
with 87638
's 87207
be 86892
on 83817
me 83501
this 79637
not 78932
so 75512
but 73735
do 72850
can 70965
will 69603
English 68592
at 66605
It 65796
we 64711
as 63847
The 62952
) 62728
time 60818
- 59965
about 59787
very 59536
from 59041
like 58806
( 57054
? 56688
because 53144
people 52992
'm 50302
by 45496
there 45476
they 45048
had 45038
or 44456
more 42346
an 41429
want 40036
one 39666
think 39558
am 39350
: 39208
some 38911
go 37698
which 36698
good 36366
all 36091
has 35679
But 35639
he 35330
would 34326
when 34274
their 34154
them 33756
many 33143
In 32522
day 32438
know 32274
could 31075
Japanese 29705
who 29657
if 29322
My 29300
other 28820
were 28429
been 28316
her 27617
also 27482
So 27481
up 27446
went 27336
our 26352
' 25335
should 25225
get 25175
what 25173
This 25016
she 25001
now 24846
We 24687
first 24378
Japan 24184
your 24128
did 23786
work 23457
just 23115
friends 22944
make 22942
only 22785
really 22452
his 22347
school 22039
lot 21989
much 21763
than 21423
today 21407
new 20756
out 19875
use 18765
study 18630
And 18552
going 18491
how 18484
life 18391
too 18297
years 18185
Today 17855
friend 17642
If 17611
year 17585
way 17474
take 17449
However 17345
When 17012
see 16874
after 16693
feel 16670
said 16626
write 16571
last 16509
He 16475
such 16382
well 16203
need 16159
got 16093
no 16083
most 16082
him 15794
long 15661
help 15589
There 15375
two 15213
ca 15162
home 15089
always 15062
things 14530
days 14500
've 14215
made 14009
us 13927
these 13866
any 13793
hope 13792
even 13686
back 13451
" 13436
before 13304
world 13263
job 13163
still 13106
'll 13071
They 13040
say 12950
little 12703
something 12613
hard 12513
money 12426
every 12407
old 12401
learn 12249
here 12199
country 12082
next 12022
She 11920
A 11851
read 11848
love 11775
used 11617
After 11594
better 11536
since 11481
family 11332
thought 11268
then 11231
high 11217
find 11097
As 10782
come 10752
into 10713
able 10709
important 10696
best 10675
happy 10670
8 10644
may 10633
writing 10626
live 10582
why 10478
diary 10433
same 10433
different 10278
/ 10213
For 10082
speak 10062
try 10056
never 9997
over 9965
started 9871
week 9798
house 9743
found 9736
place 9712
class 9629
students 9594
Because 9586
ago 9574
again 9555
What 9491
understand 9480
must 9349
around 9346
thing 9344
language 9287
nuclear 9230
; 9215
where 9179
difficult 9135
came 9030
morning 8984
kind 8972
took 8944
problem 8889
public 8884
its 8870
movie 8851
person 8825
give 8783
2 8743
while 8697
big 8692
night 8651
food 8590
great 8554
does 8458
future 8457
studying 8433
myself 8425
talk 8391
each 8348
book 8339
That 8326
bad 8304
improve 8255
eat 8241
technology 8223
buy 8196
Now 8179
tell 8122
another 8117
working 8109
company 8098
2009 8048
university 8037
play 8027
few 8006
part 7975
children 7941
http 7914
You 7895
yesterday 7895
show 7894
felt 7877
without 7859
though 7853
example 7851
called 7813
keep 7724
countries 7702
looking 7661
government 7602
told 7580
student 7506
elderly 7480
course 7479
watch 7427
during 7392
car 7355
One 7333
become 7328
teacher 7322
being 7283
month 7248
summer 7229
often 7220
enjoy 7219
wanted 7204
music 7190
At 7178
city 7130
words 7090
using 7034
3 7016
soon 7004
might 6959
energy 6944
right 6917
test 6895
reading 6891
start 6854
learning 6852
Then 6849
power 6825
look 6809
interesting 6768
english 6745
three 6740
saw 6737
sometimes 6720
decided 6714
name 6689
care 6683
someone 6613
problems 6571
enough 6559
To 6555
those 6540
On 6517
nice 6515
meet 6473
bought 6463
cold 6434
parents 6419
TV 6411
reason 6350
beautiful 6313
man 6255
tomorrow 6252
books 6242
^ 6237
Chinese 6217
down 6209
site 6188
asked 6152
through 6144
put 6080
already 6071
end 6044
especially 6041
Tokyo 6034
change 6031
Do 6028
almost 6019
1 6014
forward 6006
hours 5989
own 5974
information 5959
between 5940
room 5891
times 5890
heard 5737
Therefore 5710
development 5669
process 5661
off 5641
system 5638
famous 5630
shopping 5622
foreign 5620
fun 5616
How 5607
game 5586
small 5562
experience 5542
Lang 5531
First 5520
design 5504
means 5473
mother 5447
'd 5441
Although 5438
story 5431
makes 5430
order 5425
free 5390
doing 5385
party 5369
getting 5359
water 5356
please 5334
living 5333
usually 5322
believe 5320
stay 5317
until 5303
] 5258
hot 5252
[ 5219
-@@ 5200
fact 5197
everyone 5163
hand 5148
5 5107
aged 5074
correct 5063
Singapore 5062
tired 5054
near 5052
sleep 5049
ate 5046
having 5031
restaurant 5023
speaking 4985
% 4978
trip 4949
Some 4917
watching 4905
travel 4895
cost 4894
both 4891
weather 4889
4 4883
possible 4881
spend 4856
thinking 4834
second 4830
watched 4829
research 4826
bit 4795
sure 4758
population 4752
spending 4738
Yesterday 4735
clothes 4732
others 4719
met 4705
busy 4703
easy 4695
tried 4685
result 4677
skills 4677
~ 4675
exam 4661
favorite 4639
train 4622
10 4607
office 4592
months 4590
American 4578
anything 4574
health 4559
news 4559
girl 4555
Please 4542
society 4537
young 4533
everything 4528
together 4527
let 4515
visit 4513
interested 4512
idea 4509
China 4499
ask 4489
finished 4469
shop 4459
early 4448
age 4432
Anyway 4386
everyday 4375
computer 4350
phone 4343
mind 4339
human 4326
By 4321
= 4305
due 4248
practice 4240
left 4233
business 4225
aging 4218
holiday 4215
recently 4213
seems 4206
listening 4186
away 4184
minutes 4154
gave 4143
These 4136
lives 4128
dinner 4071
lunch 4067
taking 4058
Retrieved 4051
situation 4033
making 4032
listen 4024
team 4019
Korean 3980
far 3974
less 3971
playing 3962
Also 3959
Maybe 3940
New 3937
Recently 3936
Since 3924
word 3917
chance 3916
point 3905
area 3887
yet 3883
addition 3869
quite 3860
weekend 3856
face 3845
written 3838
seen 3829
Actually 3826
feeling 3778
enjoyed 3769
Of 3767
became 3765
number 3764
education 3751
whether 3747
body 3746
late 3736
dream 3730
popular 3727
Dear 3720
drink 3712
looked 3711
short 3704
wish 3703
maybe 3697
Last 3672
plan 3666
college 3653
e 3653
vacation 3647
coming 3641
wrote 3631
Korea 3622
talking 3615
ever 3612
past 3611
once 3609
several 3603
special 3586
All 3581
son 3572
Even 3570
changed 3569
talked 3569
done 3566
` 3565
wife 3562
main 3557
played 3541
town 3535
whole 3535
6 3533
call 3532
hear 3509
un@@ 3501
m 3482
genetic 3479
movies 3473
pay 3468
entry 3463
abroad 3459
song 3459
half 3450
/@@ 3439
bus 3431
father 3422
opinion 3411
bed 3402
internet 3402
30 3378
transport 3374
lots 3373
stop 3354
support 3346
& 3343
true 3337
culture 3323
full 3318
later 3317
weeks 3314
mean 3307
social 3307
case 3305
season 3305
picture 3303
Is 3298
poor 3289
Many 3278
real 3268
safety 3268
nothing 3256
t 3256
actually 3244
remember 3238
fast 3232
run 3217
happened 3213
reactor 3200
group 3193
website 3188
knew 3184
o 3183
teach 3174
air 3169
level 3168
environment 3155
learned 3141
choose 3139
evening 3139
needs 3120
least 3118
hour 3107
reactors 3106
studied 3097
surprised 3089
instead 3087
September 3084
s 3084
20 3081
Thank 3079
spent 3079
skill 3065
sad 3057
daughter 3054
known 3050
daily 3045
letter 3042
expensive 3023
Finally 3021
lost 3019
activities 3017
members 3017
strong 3000
native 2997
wrong 2997
VHTR 2982
answer 2971
hair 2962
trying 2954
concert 2949
easily 2934
languages 2921
_ 2920
child 2917
places 2898
meeting 2895
increase 2888
bring 2881
Why 2875
finally 2865
Internet 2855
club 2855
check 2852
winter 2850
in@@ 2844
* 2837
leave 2830
price 2827
rain 2818
economic 2817
sports 2816
lesson 2811
various 2811
sentences 2808
cause 2806
question 2804
amount 2803
're 2789
conversation 2788
wear 2774
reasons 2770
7 2769
front 2765
walk 2765
wo 2762
With 2754
cars 2754
program 2743
under 2742
medical 2741
Moreover 2740
//www.@@ 2734
eating 2733
store 2732
_@@ 2727
wonder 2726
building 2720
etc 2712
worked 2712
alone 2709
generation 2707
woman 2706
large 2701
s@@ 2696
wait 2691
Sometimes 2685
areas 2684
products 2684
ability 2673
sentence 2673
finish 2669
accident 2666
October 2663
five 2656
heart 2655
moment 2647
husband 2646
present 2636
birthday 2633
set 2628
held 2623
songs 2623
games 2621
prefer 2614
kinds 2613
S@@ 2609
useful 2609
knowledge 2601
continue 2599
sister 2591
arrived 2583
festival 2580
companies 2577
delicious 2570
America 2565
results 2561
waste 2557
service 2555
questions 2554
four 2553
afternoon 2548
outside 2539
glad 2538
US 2535
major 2535
} 2533
temperature 2532
classes 2530
excited 2526
{ 2526
HYPERLINK 2514
pictures 2506
low 2504
wanna 2499
view 2494
2008 2486
London 2486
earthquake 2484
takes 2484
People 2483
engineering 2474
re@@ 2469
station 2469
works 2467
July 2465
Nuclear 2462
sport 2460
current 2459
comes 2448
afraid 2446
however 2443
funny 2442
rest 2440
passed 2439
side 2434
although 2424
.@@ 2417
taken 2415
conclusion 2414
mistakes 2414
From 2412
move 2412
RFID 2411
spring 2404
University 2402
matter 2392
comfortable 2388
ways 2388
rather 2383
er 2381
waiting 2375
video 2371
open 2368
women 2368
journal 2363
wonderful 2361
pass 2349
a@@ 2348
Thus 2344
natural 2340
According 2334
older 2332
i 2325
close 2321
economy 2313
t@@ 2313
needed 2312
guess 2310
snow 2310
article 2309
e@@ 2306
prepare 2300
plants 2295
cool 2294
Well 2292
forget 2287
save 2279
Most 2278
communicate 2277
rice 2273
anyone 2271
difference 2271
electricity 2260
score 2259
ones 2247
park 2246
realized 2244
eyes 2243
Yours 2239
web 2236
teachers 2235
A@@ 2231
plant 2231
sorry 2231
style 2222
D 2218
hospital 2218
quickly 2216
9 2215
No 2214
workers 2213
turn 2212
necessary 2209
baby 2201
worried 2199
film 2198
send 2196
common 2189
coffee 2186
provide 2182
lived 2181
issue 2172
sound 2172
brother 2170
boy 2165
history 2164
hotel 2164
serious 2162
mail 2157
looks 2156
strange 2154
swimming 2146
event 2142
market 2140
probably 2131
huge 2129
o@@ 2122
above 2117
men 2113
running 2106
cut 2103
themselves 2103
d@@ 2101
decide 2092
lang 2090
grammar 2089
k@@ 2085
paper 2084
exciting 2080
expected 2079
opportunity 2076
says 2076
given 2075
perfect 2073
developed 2069
Furthermore 2067
sea 2064
nervous 2061
higher 2060
ing 2060
While 2058
closed 2058
simple 2056
usual 2053
C@@ 2049
Sunday 2047
dog 2043
i@@ 2042
happen 2039
clean 2037
against 2032
ed 2032
Next 2028
Secondly 2027
guy 2024
fine 2019
recommend 2019
began 2015
won 2015
Our 2013
introduce 2013
seemed 2010
saying 2009
Every 2005
Another 2001
compared 2001
type 1989
limited 1986
testing 1984
received 1982
gone 1978
helped 1978
traditional 1977
en@@ 1970
May 1968
policies 1967
00 1964
pretty 1963
Besides 1961
solve 1961
warm 1955
financial 1952
voice 1951
fuel 1950
walking 1947
attention 1945
japanese 1937
World 1935
D@@ 1931
meaning 1931
K@@ 1930
cook 1928
share 1925
P@@ 1924
$ 1923
training 1922
sent 1919
reduce 1917
wants 1914
y@@ 1914
thank 1912
Hello 1911
modern 1911
girls 1909
among 1906
shows 1903
IV 1902
available 1901
hearing 1901
Firstly 1897
drinking 1897
15 1896
Saturday 1893
stayed 1892
visited 1892
ten 1891
increasing 1889
Though 1888
line 1887
T@@ 1885
advertisement 1882
l 1881
light 1879
longer 1878
Australia 1873
local 1873
certain 1872
individual 1872
goal 1869
final 1865
beginning 1864
mobile 1863
April 1862
rainy 1860
2007 1856
helps 1856
lose 1855
including 1848
boyfriend 1844
heavy 1844
seeing 1843
weight 1840
international 1839
f@@ 1838
explain 1836
lack 1836
Before 1825
post 1825
top 1825
E@@ 1824
younger 1821
sounds 1820
kids 1818
Christmas 1817
His 1816
terrible 1807
quality 1806
G@@ 1805
foods 1804
six 1804
boring 1801
engineers 1798
product 1798
p@@ 1797
I@@ 1793
B@@ 1792
similar 1792
suddenly 1792
further 1790
Hence 1787
g@@ 1785
born 1782
third 1782
worry 1781
March 1779
cute 1779
trouble 1776
moved 1773
fall 1771
condition 1770
boss 1767
es 1767
disease 1765
hate 1760
per 1758
June 1756
doctor 1755
everybody 1754
private 1754
jobs 1753
goes 1752
join 1752
middle 1752
Taiwan 1751
Have 1748
break 1748
mistake 1747
During 1745
following 1745
worse 1744
sing 1742
staff 1742
c@@ 1740
security 1739
term 1739
sense 1738
Unfortunately 1735
liked 1734
art 1732
costs 1731
ticket 1731
express 1729
couple 1725
benefits 1724
issues 1724
communication 1723
Day 1722
caused 1721
lead 1721
choice 1720
easier 1720
Hi 1717
ideas 1716
library 1716
healthy 1715
red 1715
science 1711
street 1710
performance 1709
agree 1708
rate 1703
12 1701
foreigners 1701
guys 1701
b@@ 1699
August 1697
homework 1697
taste 1697
holidays 1691
project 1689
control 1687
graduate 1686
n@@ 1686
lessons 1682
head 1679
l@@ 1679
U 1676
electric 1675
shops 1675
> 1674
PC 1671
T 1671
seem 1670
u 1670
p 1668
safe 1667
brought 1665
Thanks 1662
completely 1662
personal 1662
11 1660
drama 1659
road 1659
clear 1654
contact 1654
USA 1651
resources 1651
develop 1650
consider 1649
normal 1649
risk 1649
sky 1648
online 1644
exercise 1643
miss 1638
woke 1637
planning 1636
N@@ 1634
F@@ 1631
O@@ 1630
green 1627
M@@ 1625
along 1625
tennis 1623
ma@@ 1622
period 1620
Canada 1618
interview 1618
deal 1616
related 1616
u@@ 1609
tea 1604
global 1603
member 1603
French 1601
advice 1601
healthcare 1600
noticed 1599
report 1598
stopped 1597
white 1596
fish 1595
Especially 1594
2004 1590
nature 1588
imagine 1587
Tomorrow 1586
instance 1586
surveillance 1585
mine 1584
li@@ 1583
Can 1581
joined 1581
friendly 1580
soccer 1580
Just 1578
Oh 1577
speaker 1577
beer 1576
card 1576
pain 1574
growth 1572
drive 1571
space 1570
yen 1570
message 1568
starting 1568
step 1568
junior 1567
door 1565
effort 1563
self 1563
TOEIC 1560
stage 1560
turned 1560
Nowadays 1559
field 1548
married 1548
examination 1547
except 1546
relatives 1546
disappointed 1543
inside 1543
20@@ 1541
mom 1539
points 1539
technologies 1539
prevent 1538
clock 1537
ease 1535
na 1535
relationship 1535
return 1535
topic 1533
band 1532
developing 1532
cooking 1530
es@@ 1523
series 1522
feelings 1521
tonight 1521
competition 1520
catch 1518
center 1517
an@@ 1516
solution 1515
sick 1514
wind 1514
2005 1513
Kyoto 1510
driving 1510
h@@ 1510
thus 1505
Pat 1504
national 1503
character 1500
musical 1492
named 1492
factors 1491
role 1490
H@@ 1489
dance 1489
amazing 1488
tend 1485
cake 1481
else 1479
exchange 1479
m@@ 1479
totally 1479
angry 1475
teaching 1475
speakers 1474
exams 1472
R@@ 1471
Friday 1470
form 1469
theatre 1469
Monday 1466
law 1465
L@@ 1464
sleeping 1464
ly 1463
appreciate 1462
purpose 1462
cat 1459
black 1450
football 1449
ers 1448
grade 1448
Let 1444
materials 1444
//@@ 1441
player 1441
begin 1439
keeping 1439
Not 1438
blog 1438
create 1437
receive 1436
taught 1431
supposed 1428
on@@ 1423
realize 1423
< 1422
likes 1422
wake 1418
sincerely 1414
convenient 1413
d 1410
staying 1410
kept 1409
wedding 1405
J@@ 1404
y 1403
al@@ 1399
stuff 1399
floor 1398
traffic 1397
forgot 1395
based 1393
Osaka 1392
pressure 1391
either 1390
ting 1384
attend 1383
within 1383
definitely 1381
stress 1381
harder 1378
50 1377
hit 1376
presentation 1372
stand 1372
enter 1369
animals 1368
grow 1368
ice 1365
sleepy 1362
actor 1361
located 1361
positive 1361
relax 1360
interest 1357
recent 1357
hometown 1354
An 1353
basketball 1352
accidents 1350
table 1349
changes 1347
entrance 1346
sweet 1346
touch 1346
ar@@ 1345
thanks 1344
subject 1342
S 1340
2006 1339
er@@ 1338
raining 1338
activity 1337
100 1336
Year 1332
schools 1332
hold 1331
fell 1330
previous 1330
therefore 1328
B 1327
improved 1322
United 1320
build 1320
effective 1320
win 1320
policy 1311
prepared 1309
ti@@ 1308
anymore 1307
painting 1307
gives 1306
THE 1305
color 1304
enjoyable 1304
expect 1304
mentioned 1304
About 1303
Are 1303
ted 1303
decision 1301
C 1299
crazy 1299
position 1298
breakfast 1297
r@@ 1297
shoes 1297
account 1295
z@@ 1295
dictionary 1292
dangerous 1290
photo 1290
n 1285
favourite 1284
transportation 1284
4@@ 1281
to@@ 1281
success 1280
beach 1279
girlfriend 1278
families 1274
la@@ 1273
medicine 1273
method 1273
psychology 1273
Second 1272
ts 1272
en 1271
3@@ 1270
stories 1270
efficiency 1269
cafe 1268
improving 1267
innovation 1267
focus 1266
broken 1262
chat 1262
citizens 1261
department 1261
land 1261
v@@ 1261
Her 1259
apartment 1259
essay 1258
rules 1257
gon 1254
heat 1250
biggest 1249
mountain 1247
Michael 1246
bar 1246
hobby 1245
hands 1243
National 1242
References 1242
vocabulary 1242
drank 1241
avoid 1240
date 1239
gas 1237
singing 1237
International 1236
basic 1235
meal 1234
cities 1233
introduced 1233
follow 1232
lower 1232
dishes 1231
immediately 1231
text 1230
tickets 1229
Generation 1228
k 1227
paid 1227
pronunciation 1227
atmosphere 1226
effect 1224
source 1224
truth 1224
progress 1223
radio 1222
+ 1221
changing 1221
j@@ 1221
camera 1220
cheap 1220
walked 1220
studies 1219
ra@@ 1218
becoming 1217
ch@@ 1214
g 1214
terms 1213
.com/@@ 1212
it@@ 1211
track 1211
ball 1210
w@@ 1210
opened 1209
earlier 1207
privacy 1207
industry 1205
caught 1204
till 1204
confidence 1199
W@@ 1197
programs 1197
cherry 1196
nowadays 1196
parts 1196
travelling 1194
effects 1193
events 1193
fresh 1193
produce 1193
ride 1193
Here 1191
memory 1191
patients 1191
lucky 1189
built 1188
according 1186
listened 1183
speed 1183
bicycle 1180
classmates 1180
considered 1180
fashion 1180
helping 1180
community 1179
customers 1179
speech 1179
baseball 1173
sun 1172
retirement 1170
Spanish 1169
died 1169
reach 1169
oil 1168
master 1164
5@@ 1163
title 1163
chose 1161
entries 1161
th@@ 1161
Everyone 1160
ca@@ 1160
yourself 1160
Skype 1158
wondering 1158
ran 1157
rich 1157
smile 1157
blue 1156
characters 1156
suitable 1156
somebody 1152
senior 1151
experiences 1149
benefit 1148
di@@ 1148
con@@ 1147
machine 1147
physical 1147
2@@ 1146
Good 1146
slept 1145
giving 1144
plans 1144
hurt 1143
al 1142
created 1142
lazy 1141
nobody 1141
co 1140
enjoying 1140
loved 1139
cell 1137
increased 1137
individuals 1137
V@@ 1132
advantages 1131
si@@ 1131
single 1131
st@@ 1131
required 1130
someday 1130
ageing 1128
or@@ 1126
services 1126
satisfied 1125
negative 1124
U@@ 1123
allow 1123
size 1123
blood 1122
ensure 1122
twice 1122
showed 1121
window 1121
bath 1120
concerned 1120
growing 1118
P 1117
argue 1117
particular 1117
patient 1117
achieve 1116
box 1115
action 1114
cup 1114
Yes 1113
match 1113
original 1110
confused 1109
starts 1109
offer 1108
worker 1108
general 1106
ri@@ 1105
systems 1105
potential 1103
ready 1103
becomes 1100
funds 1100
key 1100
reply 1099
happiness 1098
photos 1097
state 1097
2000 1096
England 1095
facilities 1095
behind 1093
sunny 1093
wearing 1093
likely 1092
bag 1091
towards 1091
uses 1090
God 1089
worth 1089
Europe 1088
ha@@ 1087
sold 1087
8@@ 1084
UK 1083
death 1082
bike 1081
japan 1079
Fortunately 1077
mainly 1077
solutions 1076
mood 1074
checked 1073
plays 1072
apply 1070
at@@ 1070
notice 1067
impossible 1066
gets 1065
knows 1065
war 1063
somewhere 1062
search 1060
hardly 1058
river 1058
Could 1056
elementary 1056
vegetables 1052
camp 1051
buildings 1049
trees 1049
tough 1048
degree 1047
concern 1046
disaster 1046
brain 1045
co@@ 1044
moving 1044
careful 1043
weak 1042
page 1039
police 1038
allowed 1037
respect 1036
States 1034
flowers 1033
television 1033
British 1030
preparing 1030
tests 1030
pool 1027
professional 1027
pop 1025
types 1025
experienced 1022
add 1021
crowded 1021
dark 1018
prize 1018
York 1017
efficient 1017
le 1017
computers 1016
burden 1015
buying 1015
cream 1015
million 1015
nation 1015
pollution 1015
South 1014
Two 1014
chinese 1014
production 1014
ab@@ 1013
accept 1013
island 1012
surprise 1012
Mr 1011
de@@ 1011
exactly 1011
6@@ 1009
conference 1006
diseases 1006
ro@@ 1006
bored 1005
chocolate 1005
thoughts 1005
faster 1003
treatment 1002
German 1000
dis@@ 1000
fluently 1000
responsibility 1000
meat 999
schedule 999
ceremony 998
7@@ 996
ent 996
cheaper 995
active 994
fan 994
garden 994
te 994
Energy 993
.html 991
below 991
importance 990
Their 989
ex@@ 989
iPhone 989
essential 988
media 988
military 988
Y@@ 985
list 985
ter 985
OK 984
earth 984
funding 984
sit 983
California 982
protect 982
soup 982
excellent 981
himself 979
led 979
race 979
employees 978
restaurants 978
ended 976
airport 974
sell 974
for@@ 973
newspaper 973
scared 973
Sir 967
luck 967
se 967
drunk 966
helpful 966
semester 964
typhoon 964
40 963
DVD 963
stars 962
successful 962
'@@ 961
articles 961
sushi 961
bank 960
figure 960
guitar 959
operation 959
ac@@ 957
ground 957
16 956
clearly 955
laptop 955
colleagues 954
earn 954
scene 954
traveling 954
carry 953
differences 953
users 953
die 952
whose 952
cases 951
demand 949
innovations 948
IT 947
anyway 947
mo@@ 945
attended 944
wa@@ 943
Your 942
smart 942
goods 940
suggest 940
.pdf 939
18 939
application 939
s/@@ 939
se@@ 938
act 937
income 937
released 937
14 936
understood 936
2003 935
E 935
Reactor 934
advanced 934
processes 934
sales 934
opportunities 933
quit 933
sitting 933
impressed 931
cooked 930
O 928
graduated 924
ordered 924
pm 924
planned 923
percent 922
gym 921
houses 921
Or 920
1st 919
entered 919
professor 918
el@@ 917
extremely 917
version 916
9@@ 915
warming 915
foreigner 914
limit 913
museum 912
conditions 911
players 911
aspects 910
dont 910
Technology 909
invited 909
challenge 907
stores 907
sum 907
13 906
corrected 905
include 904
log 904
bread 903
happens 903
regret 903
su@@ 903
Does 901
In@@ 901
dead 901
dreams 901
Once 899
spoke 899
January 898
material 897
piece 897
deep 896
sp@@ 896
access 895
25 894
Chernobyl 894
comments 894
fantastic 894
Russian 893
host 893
Danny 892
impact 892
possibility 892
data 891
strongly 891
lol 889
milk 888
stupid 888
piano 887
failed 886
king 886
career 885
expression 885
latest 885
over@@ 885
prefecture 885
singer 885
significant 884
Italian 883
Usually 882
faithfully 882
management 879
answered 878
h 878
Nevertheless 877
rock 877
highly 876
software 876
driver 875
produced 875
whenever 875
France 873
construction 873
Its 872
Tuesday 872
everywhere 872
insurance 872
concentrate 871
encourage 870
fully 870
understanding 869
December 867
Festival 867
Summer 866
itself 866
midnight 866
unique 865
budget 863
distance 862
shocked 862
advantage 861
slow 860
novel 859
require 859
India 857
governments 857
charge 856
fever 856
im@@ 856
memories 856
ourselves 856
asleep 855
TO 854
dogs 854
lovely 854
c 853
worst 853
Which 852
customer 852
non 852
pick 852
sh@@ 852
total 852
leaves 851
image 850
welfare 849
,@@ 848
Brook 848
currently 847
graduation 846
subjects 846
affect 845
curry 845
fire 845
Facebook 843
seven 842
17 840
dancing 840
ages 839
alcohol 839
simply 837
attitude 836
gradually 836
1@@ 835
2010 834
ant 834
doubt 834
afford 833
designed 831
Only 829
solar 829
technological 829
causes 828
de 828
seriously 828
complete 827
swim 827
programme 826
affected 825
standard 825
task 825
via 825
autumn 824
birth 824
haha 824
dollars 823
be@@ 822
bigger 822
gift 822
radioactive 822
convenience 820
familiar 820
op@@ 820
variety 819
wine 819
em@@ 818
groups 818
proper 818
killed 817
nearly 817
... 814
broke 813
email 813
manager 811
M 810
pro@@ 810
humans 809
pleased 809
century 808
visiting 807
cultures 806
leaving 806
manage 806
secret 806
phones 805
damage 804
hungry 804
anywhere 803
finding 803
ation 802
films 802
honest 802
surfing 802
kill 801
theater 801
Who 800
ec@@ 800
fit 800
despite 799
draw 799
expressions 799
Butler 798
fight 798
spoken 798
19@@ 797
belong 797
chicken 797
anime 796
discovered 796
allows 795
gain 795
shown 795
th 795
willing 795
involved 793
Despite 791
happening 791
tion 791
fat 790
&@@ 789
X 789
efforts 789
lecture 789
recommended 789
lo@@ 788
sa@@ 788
boys 787
no@@ 785
ta@@ 785
hydrogen 784
magazine 784
value 784
wide 784
ated 783
ded 783
whom 783
don 782
requires 782
minute 781
relaxed 781
unfortunately 781
.htm 780
blossoms 780
flight 780
sed 780
whatever 780
eye 779
mi@@ 779
Germany 777
February 776
Those 776
directly 776
ment 776
difficulty 775
math 775
provided 775
lately 774
celebrate 773
us@@ 773
extra 772
suffering 772
applied 771
maintain 771
ok 771
saving 771
situations 771
smoking 771
concept 770
corrections 770
ap@@ 769
arrive 769
diet 769
Public 768
asking 767
cancer 766
Asian 765
advance 765
tour 765
smell 764
comment 763
fireworks 763
factor 762
lonely 762
overseas 762
topics 762
More 761
Z@@ 761
trains 761
discuss 760
specific 760
adults 759
loves 758
po@@ 758
returned 758
tree 758
contribute 757
plane 757
pleasure 757
force 756
Genetic 755
influence 755
appeared 753
flu 752
wall 752
Three 751
across 751
average 751
features 751
the@@ 751
ordinary 750
x 750
fear 749
chatting 748
complicated 748
carefully 747
gotten 747
TOEFL 746
cats 745
drawing 745
surgery 745
address 744
hobbies 744
reality 744
registered 744
skin 744
Both 743
seat 743
complain 742
slowly 742
phrase 741
salary 741
absolutely 740
capital 740
foot 740
moon 740
motivation 740
radiation 740
ve 740
Wednesday 739
crisis 739
b 738
attractive 737
overcome 737
24 736
as@@ 736
continued 736
depressed 736
ine 734
calm 733
feels 732
actors 731
tent 731
dress 730
telephone 729
mouth 728
sites 728
section 727
tool 727
beauty 726
screen 726
volunteer 726
courses 725
ea@@ 725
ous 725
Italy 724
cultural 724
shape 724
former 723
Over 722
invention 722
environmental 721
aim 720
korean 720
childhood 719
details 719
reduced 719
supermarket 719
pa@@ 718
difficulties 717
ked 717
usage 717
10@@ 716
ag@@ 716
rent 716
0 715
meals 715
pe@@ 715
suit 715
carrier 714
degrees 714
headache 714
failure 713
dish 712
practicing 711
45 710
et@@ 710
adult 709
behavior 709
nbsp 709
Ryan 708
laugh 708
shy 708
suffer 708
translate 708
alternative 707
partner 707
.org/@@ 706
fee 706
female 705
loss 705
mental 705
2001 704
fossil 704
function 704
habit 704
note 704
st 704
SCWR 703
ch 703
depends 703
extent 703
eventually 702
quiet 702
60 701
J 701
skype 701
chances 700
flat 700
per@@ 700
proud 700
reached 700
appropriate 699
r 699
record 699
Instead 698
ad@@ 698
cards 698
discount 698
cleaning 697
inter@@ 697
November 696
promised 696
remembered 696
European 695
concerns 695
elder 695
rule 695
upset 695
2002 694
errors 694
opinions 694
res@@ 694
sort 694
missed 693
City 692
Kim 691
lie 691
provides 691
Hong 689
Thailand 689
Russia 688
hang 688
so@@ 687
technical 687
twenty 687
improvement 686
ship 685
suggested 685
nose 684
climbing 683
et 682
0@@ 681
engineer 681
items 681
sight 681
19 680
le@@ 680
scientists 680
teeth 680
tions 680
drinks 679
equipment 679
impression 679
waited 679
Madam 677
lifestyle 677
Hope 676
forever 676
go@@ 676
Science 675
colleague 674
church 673
kitchen 673
operating 673
dry 672
High 671
workforce 671
discounts 670
sightseeing 670
awesome 669
cry 669
expenses 669
id@@ 669
license 669
mostly 669
prices 669
rise 669
ic@@ 668
range 667
accent 666
da@@ 666
hunting 666
providing 666
ho@@ 665
implemented 665
sign 665
Almost 664
CPF 664
eaten 664
riding 663
streets 662
tax 662
Asia 661
deeply 661
describe 661
ent@@ 661
tourists 661
methods 660
raise 660
weird 660
bi@@ 659
dad 659
generate 659
greatly 659
content 658
Ma@@ 657
animation 657
brings 656
owner 655
wash 655
exist 654
generations 654
ing@@ 654
lights 654
Camp 653
centre 653
id 653
introduction 653
telling 653
accepted 652
exhausted 652
responsible 652
net 651
structure 651
Kong 650
il@@ 650
am@@ 649
flower 649
sources 649
tasks 649
fried 648
grandmother 648
n.d. 648
aware 647
model 647
regular 647
salt 647
ance 646
diaries 646
messages 646
frequently 645
nearby 644
spite 644
knowing 643
measures 643
review 643
secrets 642
noodles 641
Other 640
School 640
aspect 640
employment 639
marriage 639
crying 638
standing 638
god 637
relatively 637
user 637
fix 636
persons 636
2011 635
21 635
Time 634
devices 634
ding 634
welcome 634
el 633
vehicles 633
fail 632
ci@@ 631
journey 631
23 630
balance 630
cover 630
participate 630
treat 630
Very 629
bo@@ 629
dairy 629
desk 629
parties 629
Central 628
Did 628
rising 628
valuable 628
Thursday 627
tu@@ 627
wet 627
pair 626
contrast 625
safer 625
decrease 624
fuels 624
ill 624
includes 624
me@@ 624
rights 624
thousand 624
peace 623
22 622
Health 622
facing 622
managed 622
Thai 621
eight 621
stomach 621
kid 620
letters 620
ty 620
Suddenly 619
ds 619
ses 619
AND 617
aid 617
electronic 617
goals 617
hundred 617
ni@@ 617
picked 617
ya 617
political 616
star 616
Due 615
sauce 615
hello 614
shower 614
CD 613
Spain 613
ev@@ 613
Mar@@ 612
hall 612
vi@@ 612
board 611
shirt 611
generated 610
im 610
wore 610
faced 609
examples 608
glasses 608
hence 608
sometime 608
Peter 607
bright 607
ou@@ 607
relaxing 607
comic 606
reasonable 606
theme 606
sector 605
throw 605
filled 604
sat 604
smoke 604
confident 603
fields 603
videos 603
beings 602
ir@@ 602
author 601
do@@ 601
practical 601
explained 600
housing 600
projects 600
wondered 600
Would 599
device 599
Where 598
billion 598
guide 598
inform 598
ke 598
occurred 598
Spring 596
background 596
menu 596
't 595
reveal 595
Seoul 594
ha 594
machines 594
suppose 594
golf 593
spread 593
anybody 592
om@@ 592
region 592
Such 591
ary 591
audience 591
car@@ 591
ring 591
ce 590
fly 590
raised 590
tive 590
regarding 589
academic 587
invented 587
Like 586
mall 586
sweets 586
consideration 585
infrastructure 585
practiced 585
president 585
properly 585
greater 584
yes 584
rooms 583
x@@ 583
Power 582
considering 582
hi@@ 582
horrible 582
supply 582
temple 582
18@@ 580
Lastly 580
AM 579
accommodation 579
glass 579
personality 579
typical 579
D. 578
believed 578
lady 578
phrases 578
disadvantages 577
mountains 577
te@@ 577
appear 576
handle 576
sufficient 576
buses 575
covered 575
leader 575
IN 574
brand 574
ne@@ 574
subtitles 574
universities 574
ys 574
Life 573
soft 573
unable 573
conversations 572
incident 572
somehow 572
yellow 572
Okinawa 571
tents 571
village 571
bear 570
searching 570
Ministry 568
North 568
Perhaps 568
animal 568
core 568
disorder 568
pet 568
promise 568
qu@@ 568
certainly 567
effectively 567
ning 567
manga 566
novels 566
Research 565
classmate 565
discovery 565
ge 565
inventions 565
desire 564
dy 563
ks 563
coal 562
uncomfortable 562
crime 560
ga@@ 560
opposite 560
primary 560
steps 560
Re@@ 559
grateful 559
falling 558
numbers 558
statement 558
Harry 557
L 557
Will 557
dropped 557
entire 557
missing 557
com@@ 556
depend 556
homes 556
pieces 556
John 555
faces 555
noon 555
rea@@ 555
Im 553
artists 553
grown 553
highest 553
names 553
ps 553
western 553
Everything 552
Love 552
2nd 551
Google 551
lines 551
lyrics 551
network 551
putting 551
textbook 551
album 550
ence 550
freedom 550
perfectly 550
toward 550
Development 549
Without 549
parent 548
request 548
scenery 548
Hokkaido 547
ally 547
factory 547
dramas 546
generally 546
illness 546
journals 546
ling 546
stronger 546
weekends 546
80 545
chosen 545
mention 545
papers 545
v 545
connect 544
der 544
discrimination 544
noodle 544
rapidly 544
bye 543
upon 543
Americans 542
carried 542
fans 542
memorize 542
notes 542
response 542
sale 542
Park 541
chair 541
indeed 541
male 541
pray 541
vehicle 541
3D 540
Nature 540
Sorry 540
subway 540
ver@@ 540
expenditure 539
paint 539
super 538
contents 537
passing 537
complex 536
friendship 536
interests 536
strict 536
17@@ 535
K 535
cycle 535
cor@@ 534
emergency 534
functions 534
noise 534
remain 534
compare 533
conditioner 533
coolant 533
custom 533
leading 533
trust 533
ze 533
powerful 532
Mrs 531
announced 531
carbon 531
cinema 531
economics 531
ends 531
tra@@ 531
Nagoya 530
curious 530
designing 530
dirty 530
disappointing 530
opening 530
recover 530
tasty 530
historical 529
majority 529
nor 529
presents 529
shortage 529
thesis 529
1000 528
perform 528
pre@@ 528
scary 528
selling 528
consequences 527
nap 527
Happy 526
losing 526
meant 526
pizza 526
pot 526
round 526
ta 526
throughout 526
Engineering 525
actions 525
climate 525
loud 525
precious 525
severe 525
3rd 524
banned 524
challenges 524
option 524
relationships 524
survive 524
Al@@ 523
Apple 523
bu@@ 523
passion 523
smaller 523
solved 523
south 523
f 522
straight 522
z 522
spare 521
cried 520
est 520
pleasant 520
plenty 520
rare 520
reported 520
serve 520
offered 519
particularly 519
release 519
tongue 519
Island 518
Whenever 518
abilities 518
cousin 518
facebook 518
forgotten 518
hospitals 518
larger 518
organization 518
scientific 518
translation 518
15@@ 517
added 517
claim 517
drop 517
ending 517
fu@@ 517
tells 517
Indian 516
ideal 516
pl@@ 515
als 514
correctly 514
der@@ 514
plastic 514
thinks 514
washing 514
Beijing 513
Each 513
R 513
crucial 513
independent 513
seminar 513
Someone 512
beneficial 512
encouraged 512
fruit 512
ll 512
alive 511
artist 511
decades 511
escape 511
fa@@ 511
occur 511
Education 510
beef 510
conventional 509
ex 509
28 508
65 508
Everybody 508
and@@ 507
diverted 507
Museum 506
forced 506
tic 506
widely 506
Cup 505
parking 505
ite 504
umbrella 504
Twitter 503
constantly 503
discussion 503
learners 503
relieved 502
ver 502
writer 502
Australian 501
les 501
psychological 501
cakes 500
correcting 500
danger 500
drove 500
entertainment 500
gi@@ 500
km 499
priority 499
Con@@ 498
NY 498
brush 498
digital 498
ness 498
sang 498
Yokohama 497
answers 497
dentist 497
designs 497
lies 497
re 497
target 497
twitter 497
Ch@@ 496
educational 496
ong 496
roads 496
SFR 495
Yet 495
besides 495
eggs 495
herself 495
savings 495
ur@@ 495
Best 494
Should 494
ating 494
scheme 494
discussed 493
weapons 493
F 492
ko 492
par@@ 492
cu@@ 490
is@@ 490
ma 490
ramen 490
ba@@ 489
birds 489
legs 489
leisure 489
strength 489
unknown 489
13@@ 487
contains 487
included 487
connected 486
corner 486
admit 485
correction 485
finishing 485
leads 485
location 485
era 484
okay 484
ons 484
ter@@ 484
Singaporeans 483
approach 483
credit 483
lake 483
throat 483
Government 482
feet 482
shrine 482
sore 481
Vancouver 480
cheer 480
joke 480
learnt 480
12@@ 479
du@@ 479
ID 478
attack 478
ful 478
gra@@ 478
investment 477
painful 477
tense 477
25@@ 476
M. 476
Helen 475
awful 475
forest 475
north 475
wishes 475
Aging 474
boat 474
documents 474
existing 474
iPod 474
jogging 474
rarely 474
rely 474
70 473
consumption 473
ka 473
levels 473
normally 473
Fukushima 472
cha@@ 472
egg 472
recognize 472
teams 472
Philippines 471
See 471
Take 470
destination 470
followed 470
speaks 470
Lee 469
Vietnam 469
fair 469
taxi 469
Earth 468
ther 468
zed 468
IN@@ 467
appearance 467
creative 467
hesitate 467
increases 467
writting 467
Having 466
IS 466
ou 466
out@@ 466
spirit 466
# 465
cellphone 465
fund 465
holding 465
mixed 465
values 465
Right 464
chi@@ 464
director 464
exercises 464
korea 464
pages 464
wh@@ 464
Probably 463
climb 463
fi@@ 463
hi 463
spot 463
ans 462
calls 462
ear 462
laughing 462
sts 462
26 461
Disney 461
ancient 461
Africa 460
Potter 460
commercial 460
employee 460
reducing 460
replied 460
shot 460
thin 460
tsunami 460
Times 459
To@@ 459
cloudy 459
formal 459
tools 459
Golden 458
error 458
lab 458
cleaned 457
clothing 457
creating 457
fewer 457
fighting 457
laboratory 457
victims 457
websites 457
Di@@ 456
contrary 456
dislike 456
experiment 456
ner 456
published 456
checking 455
competitive 455
enhance 455
mar@@ 455
official 455
productivity 455
searched 455
Through 454
closer 454
fluent 454
rid 454
um 454
Thirdly 453
anxious 453
bathroom 453
demands 453
stood 453
tr@@ 453
discover 452
mass 452
tears 451
translated 451
Shopping 450
contest 450
duty 450
fixed 450
iPad 450
replace 450
Shanghai 449
attract 449
ed@@ 449
emotional 449
grew 449
man@@ 449
organized 449
reaction 449
religion 449
states 449
treated 449
G 448
Paris 448
Zealand 448
exhibition 448
theory 448
16@@ 447
cabin 447
il 447
ings 447
scale 447
seek 447
Taiwanese 446
choices 446
invite 446
raw 446
significantly 446
succeed 446
horse 445
invest 445
No@@ 444
base 444
detail 444
dormitory 444
salon 444
views 444
gained 443
maintenance 443
smoothly 443
29 442
comics 442
rec@@ 442
regards 442
regularly 442
sc@@ 442
Being 441
argument 441
campus 441
performed 441
roommate 441
shi@@ 441
tracking 441
bags 440
saved 440
showing 440
ang@@ 439
annoying 439
developments 439
matters 439
mu@@ 439
under@@ 439
airplane 438
assistant 438
gases 438
offers 438
Mt 437
Reference 437
collect 437
employers 437
harmful 437
impressive 437
perhaps 437
regard 437
transfer 437
battery 436
marketing 436
movement 436
unless 436
beat 435
ble 435
eng@@ 435
served 435
thousands 435
4th 434
blossom 434
concepts 434
da 434
direct 434
singers 434
ton 434
90 433
forecast 433
gather 433
eager 432
ents 432
rode 432
sion 432
ten@@ 432
thirty 432
Hawaii 431
San 431
naturally 431
ors 431
stable 431
acting 430
beginner 430
critical 430
magic 430
suggestion 430
tastes 430
washed 430
affects 429
comedy 429
connection 429
efficiently 429
oh 429
researchers 429
w 429
11@@ 428
Nice 428
applications 428
begun 428
unhappy 428
attached 427
china 427
classroom 427
consists 427
ge@@ 427
hurry 427
laughed 427
marathon 427
paying 427
shall 427
Fashion 426
Until 426
arts 426
stick 426
Mi@@ 425
Third 425
X@@ 425
double 425
repair 425
ry 425
ters 425
ying 425
Car@@ 424
Human 424
row 424
ji 423
pi@@ 423
refrigerator 423
troubles 423
volleyball 423
DVDs 422
War 422
electrical 422
gu@@ 422
latter 422
mum 422
tourist 422
200 421
circle 421
cure 421
heavily 421
ker 421
placed 421
Children 420
keeps 420
protection 420
karaoke 419
suggestions 419
Art 418
beyond 418
literature 418
mon@@ 418
prevented 418
sub@@ 418
surely 418
cash 417
greatest 417
leg 417
practise 417
stuck 417
ates 416
ki 416
tion@@ 416
ves 416
PM 415
Tonight 415
damaged 415
pity 415
An@@ 414
habits 414
ic 414
newspapers 414
30@@ 413
achieved 413
ang 413
successfully 413
Ar@@ 412
Mo@@ 412
des@@ 412
ul@@ 412
ve@@ 412
Tom 411
bottle 411
display 411
sti@@ 411
traveled 411
Th@@ 410
courage 410
jump 410
marry 410
profit 410
tor 410
27 409
castle 409
nt 409
peaceful 409
tiny 409
Canadian 408
Lately 408
Ro@@ 408
analysis 408
depression 408
magazines 408
ms 408
shaped 408
Information 407
dawn 407
est@@ 407
rained 407
OF 406
appointment 406
nine 406
sake 406
setting 406
Hey 405
conclude 405
fruits 405
tor@@ 405
push 404
humid 403
na@@ 403
s-@@ 403
Hotel 402
bar@@ 402
booked 402
purchase 402
quick 402
stone 402
tasted 402
visitors 402
XD 401
agreed 401
circumstances 401
determined 401
doctors 401
explanation 401
fill 401
item 401
operate 401
preparation 401
sweat 401
Design 400
informed 400
onto 400
promote 400
realised 400
supporting 400
fo@@ 399
posted 399
scenes 399
youth 399
Learning 398
cope 398
touched 398
windows 398
workplace 398
Western 397
empty 397
juice 397
keen 397
ly@@ 397
obvious 397
pace 397
ph@@ 397
ru@@ 397
suffered 397
um@@ 397
Smith 396
boiled 396
choosing 396
feature 396
gold 396
politics 396
trend 396
Currently 395
ING 395
Language 395
Y 395
bottom 395
direction 395
ig@@ 395
lu@@ 395
photography 395
Speaking 394
advise 394
au@@ 394
greenhouse 394
mails 394
my@@ 394
status 394
wa 394
BBC 393
News 393
beside 393
pork 393
pub 393
resource 393
shock 393
stressed 393
supported 393
unusual 393
ved 393
Department 392
Institute 392
Su@@ 392
ad 392
bird 392
consumers 392
gate 392
s.@@ 392
Taipei 391
Un@@ 391
Valentine 391
cheese 391
os 391
rates 391
turns 391
educated 390
ens 390
pri@@ 390
producing 390
40@@ 389
drugs 389
ey 389
hoping 389
prove 389
snowing 389
tri@@ 389
Rogers 388
additional 388
anytime 388
forms 388
risks 388
SNS 387
mid 387
snacks 387
sons 387
14@@ 386
Looking 386
concerts 386
harm 386
otherwise 386
200@@ 385
N 385
army 385
ity 385
participated 385
ties 385
completed 384
sharing 384
Go 383
MSR 383
Me 383
URL 383
dioxide 383
ears 383
jam 383
reports 383
war@@ 383
1999 382
brown 382
decisions 382
moral 382
sending 382
Oct 381
attending 381
ingredients 381
injured 381
laws 381
wi@@ 381
classical 380
colors 380
election 380
episode 380
fault 380
freely 380
ki@@ 380
phenomenon 380
stations 380
survey 380
ture 380
Hiroshima 379
apart 379
clinic 379
resulted 379
slightly 379
East 378
cant 378
embarrassed 378
routine 378
College 377
RE@@ 377
bl@@ 377
ck 377
dependency 377
obtain 377
ping 377
worrying 377
Co@@ 376
aunt 376
cram 376
fin@@ 376
talent 376
hell 375
profile 375
rubbish 375
Ha@@ 374
MY 374
Malaysia 374
cabins 374
cal@@ 374
intend 374
mad 374
recorded 374
reliable 374
sudden 374
installed 373
jazz 373
stressful 373
tall 373
14th 372
Everyday 372
Tohoku 372
ahead 372
bodies 372
influenced 372
purposes 372
reminds 372
residents 372
wild 372
27@@ 371
basis 371
ery 371
500 370
Sa@@ 370
Sydney 370
nations 370
recognized 370
sk@@ 370
ski 370
Mexico 369
destroyed 369
guests 369
yoga 369
Reading 368
Writing 368
air@@ 368
cutting 368
kindergarten 368
robots 368
subsidies 368
50@@ 367
EN@@ 367
Week 367
architecture 367
begins 367
capable 367
cycling 367
fore@@ 367
neighborhood 367
sex 367
wallet 367
causing 366
copy 366
daughters 366
finger 366
fishing 366
ia 366
min@@ 366
press 366
sugar 366
sunshine 366
ud@@ 366
Generally 365
Long 365
chemical 365
countryside 365
ear@@ 365
ser@@ 365
sh 365
sur@@ 365
turning 365
House 364
Students 364
babies 364
logical 364
pronounce 364
seconds 364
tourism 364
Consequently 363
Later 363
Li@@ 363
code 363
ously 363
soy 363
stated 363
studing 363
designer 362
fourth 362
grandfather 362
path 362
alarm 361
instruments 361
mark 361
solving 361
tooth 361
Center 360
Green 360
Nobody 360
emotions 360
farm 360
flying 360
largest 360
sheets 360
vital 360
Indeed 359
Shi@@ 359
grammer 359
gs 359
innovative 359
ocean 359
pasta 359
roll 359
tags 359
Bo@@ 358
Show 358
productive 358
sectors 358
31 357
Sh@@ 357
Yeah 357
economical 357
frustrated 357
monitor 357
pen 357
sunday 357
uranium 357
Mon@@ 356
couples 356
genes 356
ped 356
20:15 355
Circle 355
Friends 355
ber@@ 355
downtown 355
east 355
reminded 355
talks 355
23@@ 354
ber 354
chatted 354
conducted 354
court 354
massage 354
attracted 353
expecting 353
identify 353
ies 353
marks 353
muscle 353
pu@@ 353
IELTS 352
agency 352
badly 352
continues 352
gap 352
seldom 352
teenagers 352
truly 352
shared 351
applying 350
obviously 350
opponents 350
seasons 350
tiring 350
y-@@ 350
Brazil 349
falls 349
hoped 349
meters 349
ON 348
Theatre 348
arms 348
e-@@ 348
runs 348
selected 348
skating 348
Social 347
assignment 347
els 347
ering 347
select 347
tes 347
work@@ 347
AN 346
Ta@@ 346
bill 346
borrowed 346
calling 346
link 346
proposed 346
wealth 346
judge 345
planet 345
produces 345
receiving 345
register 345
Mac 344
colder 344
ess 344
med 344
neither 344
pension 344
seats 344
toilet 344
yours 344
Ba@@ 343
concerning 343
entering 343
es/@@ 343
excuse 343
industrial 343
resume 343
surface 343
thermal 343
useless 343
ER 342
advancement 342
sensitive 342
Web 341
annoyed 341
ano 341
ard 341
mate 341
oral 341
polite 341
reference 341
shi 341
whereas 341
Among 340
ED 340
actual 340
camping 340
daytime 340
noisy 340
yed 340
5th 339
apple 339
awareness 339
creativity 339
overall 339
session 339
button 338
chemistry 338
fees 338
lly 338
min 338
numerous 338
percentage 338
relative 338
approximately 337
cl@@ 337
depending 337
exact 337
jo@@ 337
neck 337
romantic 337
strategy 337
00@@ 336
absent 336
annual 336
ants 336
bookstore 336
laundry 336
metal 336
Be 335
Com@@ 335
advertising 335
aly 335
broadcast 335
chips 335
ger 335
Minister 334
associated 334
basically 334
brothers 334
context 334
elders 334
ered 334
furniture 334
hero 334
images 334
replaced 334
robot 334
sta@@ 334
35 333
Big 333
H 333
Paul 333
TO@@ 333
coat 333
contributed 333
gh@@ 333
rainbow 333
remind 333
rush 333
shoulder 333
sl@@ 333
ee@@ 332
improvements 332
Fuji 331
arm 331
aside 331
central 331
cited 331
golden 331
grandparents 331
parks 331
visa 331
west 331
Additionally 330
Fast 330
Indonesia 330
Population 330
Temperature 330
\ 330
counter 330
flavor 330
forth 330
map 330
mer 330
poverty 330
tutor 330
Meanwhile 329
appreciated 329
ches 329
lover 329
programming 329
stands 329
virus 329
Test 328
Toronto 328
composition 328
dear 328
joy 328
pets 328
san 328
separate 328
shirts 328
tested 328
vo@@ 328
En@@ 327
Koreans 327
garbage 327
imagined 327
possibly 327
trade 327
unexpected 327
Great 326
Har@@ 326
R&D 326
Safety 326
Sea 326
addicted 326
colour 326
earthquakes 326
gasoline 326
grand 326
illnesses 326
requirements 326
signed 326
Pro@@ 325
badminton 325
bowl 325
determine 325
encouraging 325
ff@@ 325
intended 325
secure 325
shift 325
warmer 325
Journal 324
King 324
breath 324
dealing 324
gifts 324
minds 324
obligation 324
presented 324
techniques 324
ty@@ 324
ES 323
Par@@ 323
adapt 323
assistance 323
burning 323
disagree 323
handsome 323
ion 323
satisfy 323
surprising 323
Mother 322
S. 322
cross 322
established 322
gathered 322
ina 322
q@@ 322
relevant 322
sa 322
spicy 322
Fund 321
count 321
enable 321
evidence 321
industries 321
pointed 321
studio 321
teaches 321
contract 320
debate 320
delivery 320
ep@@ 320
follows 320
physics 320
remains 320
revealing 320
stadium 320
waves 320
IS@@ 319
Rainbow 319
Santa 319
cal 319
mor@@ 319
notebook 319
ny 319
ob@@ 319
pack 319
salad 319
sides 319
threw 319
tries 319
vegetable 319
AR@@ 318
celebrated 318
dependent 318
ines 318
loudly 318
none 318
tips 318
Halloween 317
Palace 317
ar 317
grades 317
minister 317
mothers 317
perspective 317
programmes 317
sha@@ 317
technique 317
tradition 317
St@@ 316
Still 316
WAS 316
ned 316
physically 316
sisters 316
Leisure 315
YOU 315
citizen 315
com 315
communicating 315
equal 315
ese 315
helium 315
ol@@ 315
pants 315
ay 314
capacity 314
disasters 314
emission 314
hide 314
recycling 314
reduces 314
remove 314
surrounded 314
thick 314
american 313
carrying 313
disappeared 313
examinations 313
feed 313
ls 313
smiling 313
trial 313
YouTube 312
bloom 312
internship 312
motorcycle 312
pregnant 312
recovered 312
tournament 312
tower 312
trips 312
Kobe 311
bet 311
brilliant 311
cartoon 311
comfort 311
grass 311
manner 311
relation 311
rural 311
sand 311
up@@ 311
2012 310
Association 310
Party 310
Sendai 310
bridge 310
channel 310
skiing 310
thier 310
uncle 310
1986 309
ka@@ 309
operators 309
soul 309
vision 309
worldwide 309
Eventually 308
filial 308
nearest 308
oven 308
sen@@ 308
wood 308
@ 307
II 307
appears 307
arrange 307
automatically 307
ins 307
rains 307
silly 307
stock 307
threat 307
wise 307
ak@@ 306
ations 306
awake 306
coach 306
incredible 306
miso 306
ster 306
wave 306
Compared 305
affordable 305
arranged 305
existence 305
ga 305
mis@@ 305
originally 305
plutonium 305
safely 305
statistics 305
volume 305
,000 304
Any 304
Autumn 304
emissions 304
har@@ 304
multiple 304
muscles 304
nursing 304
of@@ 304
organizations 304
resort 304
sheet 304
ss 304
ure 304
300 303
Medical 303
described 303
output 303
tomato 303
upload 303
Peterson 302
ant@@ 302
beans 302
decreasing 302
experiments 302
fortunately 302
fr@@ 302
height 302
musician 302
nights 302
options 302
struggling 302
ashamed 301
implementation 301
instant 301
meanings 301
mouse 301
new@@ 301
rude 301
stic 301
ung 301
BBQ 300
chi 300
gen@@ 300
mates 300
temporary 300
tv 300
Ko@@ 299
U.S. 299
bor@@ 299
cells 299
comparison 299
ll@@ 299
plate 299
toy 299
zoo 299
Mile 298
Psychology 298
W 298
bands 298
domestic 298
pocket 298
que 298
Khandani 297
Na@@ 297
bs 297
dying 297
happily 297
hire 297
kimono 297
kindness 297
lying 297
officer 297
passport 297
borrow 296
by@@ 296
ders 296
divided 296
pan 296
raising 296
Apart 295
bills 295
overtime 295
passengers 295
prime 295
snowboarding 295
toys 295
Chi@@ 294
Prime 294
Using 294
cheerful 294
contribution 294
drivers 294
emotion 294
explosion 294
focused 294
kindly 294
mature 294
ours 294
pink 294
serendipitous 294
temperatures 294
70@@ 293
actress 293
district 293
hat 293
hole 293
imagination 293
institute 293
measure 293
neighbor 293
pure 293
surrounding 293
treatments 293
Press 292
Vietnamese 292
fla@@ 292
identification 292
limiting 292
suicide 292
Obama 291
ator 291
delay 291
gar@@ 291
ir 291
ments 291
unlike 291
Am 290
La@@ 290
Otherwise 290
THAT 290
Youtube 290
ana 290
mix 290
motivated 290
obligated 290
orange 290
package 290
pla@@ 290
rapid 290
regardless 290
winner 290
19:30 289
Honestly 289
Q@@ 289
characteristics 289
drew 289
drug 289
farewell 289
happier 289
ignore 289
lift 289
mer@@ 289
schemes 289
trained 289
unnecessary 289
24@@ 288
Poland 288
designers 288
dly 288
makers 288
promising 288
untill 288
wasted 288
Olympic 287
Sapporo 287
anger 287
costly 287
dialy 287
fed 287
hanging 287
hundreds 287
inevitable 287
killing 287
objective 287
politicians 287
terrorists 287
textbooks 287
worries 287
K. 286
Red 286
bri@@ 286
facts 286
labor 286
microwave 286
narrow 286
non-@@ 286
object 286
renewable 286
youtube 286
Bi@@ 285
G. 285
Moscow 285
Society 285
ache 285
cameras 285
can@@ 285
challenging 285
claimed 285
hung 285
men@@ 285
ming 285
separated 285
suits 285
tie 285
wheel 285
1998 284
29@@ 284
Forum 284
Mandarin 284
asks 284
coworkers 284
exposed 284
haven't 284
involves 284
models 284
monthly 284
passive 284
shorter 284
taxes 284
Family 283
System 283
assist 283
blame 283
classic 283
comp@@ 283
criminal 283
dec@@ 283
deserve 283
dollar 283
download 283
engine 283
impacts 283
league 283
mathematics 283
nurse 283
patience 283
potato 283
quake 283
strategies 283
Man 282
clerk 282
fallen 282
horror 282
insist 282
instrument 282
ok@@ 282
retired 282
sin@@ 282
square 282
Britain 281
Free 281
Surveillance 281
bra@@ 281
bur@@ 281
crowd 281
customs 281
ect 281
iphone 281
journalists 281
loo@@ 281
AT 280
Cor@@ 280
Luckily 280
Water 280
argued 280
exp@@ 280
leaders 280
spots 280
stolen 280
Fukuoka 279
Ka@@ 279
Min@@ 279
Windows 279
ely 279
financially 279
pose 279
ut@@ 279
yo 279
youngest 279
AM@@ 278
Agency 278
Winter 278
ali@@ 278
client 278
colorful 278
jokes 278
AS@@ 277
Anyways 277
Black 277
acquire 277
becouse 277
expectancy 277
jeans 277
popularity 277
stages 277
wastes 277
History 276
Inter@@ 276
Lo@@ 276
ching 276
file 276
ku@@ 276
painted 276
underground 276
zing 276
100@@ 275
Po@@ 275
Soon 275
gr@@ 275
inc@@ 275
meetings 275
passage 275
refreshed 275
sophisticated 275
terrorist 275
Amazon 274
CDs 274
OS 274
Street 274
agent 274
bea@@ 274
cooler 274
den@@ 274
festivals 274
generating 274
oc@@ 274
pres@@ 274
Bar@@ 273
adventure 273
battle 273
controlled 273
finance 273
freshman 273
massive 273
recipe 273
Future 272
millions 272
museums 272
mysterious 272
peoples 272
personally 272
surf 272
Da@@ 271
State 271
all@@ 271
amazed 271
anxiety 271
casual 271
coun@@ 271
des 271
dri@@ 271
estimated 271
fiction 271
guest 271
landscape 271
rental 271
repeat 271
/0@@ 270
429 270
AC@@ 270
Hopefully 270
Kansai 270
br@@ 270
branch 270
ck@@ 270
cou@@ 270
envy 270
graduating 270
joining 270
paintings 270
refused 270
AL@@ 269
Going 269
Provident 269
accustomed 269
anniversary 269
essays 269
ethical 269
organize 269
packed 269
skilled 269
tag 269
thin@@ 269
urban 269
13th 268
Ex@@ 268
admire 268
ani@@ 268
ement 268
forty 268
wasting 268
weekdays 268
20th 267
Ageing 267
Home 267
den 267
enormous 267
ky 267
ley 267
lottery 267
researches 267
scores 267
shut 267
superior 267
1.@@ 266
15th 266
21st 266
Air 266
bomb 266
cast 266
elements 266
ently 266
portion 266
talents 266
wisdom 266
TS 265
insufficient 265
pp@@ 265
relations 265
slang 265
supper 265
sustainable 265
symptoms 265
GPS 264
deny 264
disorders 264
hill 264
organised 264
regarded 264
.com 263
De@@ 263
V 263
cleaner 263
fascinating 263
majoring 263
regulations 263
tur@@ 263
bother 262
cloth 262
dic@@ 262
homestay 262
hu@@ 262
implement 262
kin@@ 262
nightmare 262
procedures 262
proven 262
stability 262
80@@ 261
ME 261
Someday 261
che@@ 261
clever 261
decline 261
easing 261
edge 261
pr@@ 261
scheduled 261
sea@@ 261
ven@@ 261
Something 260
White 260
barely 260
boost 260
lay 260
refresh 260
shame 260
silent 260
typing 260
19.30 259
Ms 259
Pa@@ 259
Sep 259
Singaporean 259
alot 259
cookies 259
delivered 259
fortune 259
identity 259
mus@@ 259
sailing 259
shed 259
ware 259
Club 258
Global 258
OR 258
Starbucks 258
bringing 258
caring 258
chain 258
clients 258
fingers 258
flow 258
interviews 258
jacket 258
ns 258
printed 258
smiled 258
sounded 258
tons 258
tt@@ 258
45@@ 257
Ad@@ 257
ai 257
bride 257
encounter 257
fe@@ 257
hamper 257
hated 257
healthier 257
mirror 257
moments 257
outdoor 257
styles 257
ut 257
va@@ 257
1/@@ 256
Available 256
Come 256
Parents 256
Taking 256
clubs 256
deadline 256
fl@@ 256
ian 256
proved 256
refuse 256
saturday 256
soap 256
09@@ 255
FOR 255
Hall 255
criminals 255
explore 255
fulfill 255
kes 255
mas 255
meaningful 255
seniors 255
struggle 255
tic@@ 255
windy 255
AT@@ 254
HDB 254
attacks 254
canceled 254
day@@ 254
eve 254
focusing 254
gathering 254
kers 254
stairs 254
sung 254
Back 253
Cha@@ 253
coworker 253
enables 253
experts 253
ignored 253
musicians 253
strangers 253
sun@@ 253
Ca@@ 252
Mc@@ 252
adjust 252
ances 252
awkward 252
behave 252
brave 252
clouds 252
crimes 252
firm 252
sunset 252
GDP 251
L. 251
Ok 251
R. 251
ba 251
energetic 251
hotels 251
kg 251
northern 251
proportion 251
retire 251
slight 251
McDonald 250
Mr. 250
Regarding 250
Robertson 250
Studying 250
ee 250
fond 250
s_@@ 250
sted 250
stu@@ 250
switch 250
tics 250
we@@ 250
60@@ 249
AN@@ 249
Bangkok 249
LFR 249
any@@ 249
ces 249
constant 249
cra@@ 249
economically 249
friday 249
frozen 249
ill@@ 249
lea@@ 249
ong@@ 249
print 249
refund 249
somewhat 249
ther@@ 249
ya@@ 249
Wow 248
academy 248
contain 248
controversial 248
hamburger 248
importantly 248
ined 248
instructor 248
ken 248
legal 248
lin 248
maker 248
mankind 248
relief 248
Music 247
ched 247
fifty 247
hand@@ 247
ne 247
property 247
reputation 247
specially 247
standards 247
terrorism 247
yo@@ 247
7th 246
Company 246
MSN 246
attractions 246
ban 246
bars 246
commonly 246
gh 246
humor 246
lity 246
molten 246
ster@@ 246
stranger 246
update 246
Gu@@ 245
Shinjuku 245
arguments 245
document 245
expand 245
feasible 245
learner 245
ler 245
sickness 245
succeeded 245
touching 245
undergo 245
Old 244
Sports 244
Systems 244
adopted 244
blind 244
disappear 244
lectures 244
minimum 244
satisfaction 244
upper 244
1-@@ 243
Nothing 243
competitions 243
dreamed 243
factories 243
french 243
housework 243
int@@ 243
oo@@ 243
payment 243
wherever 243
IM@@ 242
Q 242
commute 242
composed 242
consequence 242
defense 242
dressed 242
everytime 242
quarter 242
ss@@ 242
summary 242
titled 242
vast 242
//en.wikipedia.org/wiki/@@ 241
Board 241
Chiba 241
President 241
ably 241
civil 241
confirm 241
continuous 241
cr@@ 241
load 241
promotion 241
sooner 241
11th 240
Wikipedia 240
baked 240
creates 240
discoveries 240
exists 240
ied 240
kinda 240
oldest 240
recession 240
roof 240
sadness 240
silver 240
staffs 240
t-@@ 240
thankful 240
wars 240
Jane 239
Sometime 239
Starting 239
acc@@ 239
ari@@ 239
attacked 239
cation 239
col@@ 239
cuisine 239
delayed 239
dreaming 239
extreme 239
fiscal 239
ging 239
increasingly 239
manufacturing 239
neglected 239
ng 239
platform 239
sal@@ 239
stops 239
supermarkets 239
Bu@@ 238
Egypt 238
blogs 238
clo@@ 238
cooling 238
dried 238
emphasis 238
fishes 238
ide 238
spa 238
stuffs 238
talented 238
uk@@ 238
uniform 238
Business 237
C. 237
Polish 237
Si@@ 237
breaking 237
bunch 237
burn 237
don@@ 237
intelligent 237
introducing 237
planed 237
proliferation 237
33@@ 236
Committee 236
Man@@ 236
Watching 236
Write 236
acted 236
amounts 236
continuously 236
delighted 236
diving 236
gay 236
gorgeous 236
proof 236
revealed 236
sy@@ 236
tip 236
tors 236
vs 236
wor@@ 236
26@@ 235
Arts 235
advised 235
convinced 235
ges 235
meltdown 235
port 235
realise 235
som@@ 235
spelling 235
temples 235
texts 235
troublesome 235
unbelievable 235
Ac@@ 234
Go@@ 234
Olympics 234
belongs 234
chocolates 234
compete 234
confusing 234
ei@@ 234
flew 234
home@@ 234
ise 234
keyboard 234
lovers 234
pop@@ 234
selfish 234
snack 234
Ho@@ 233
Jack 233
Listening 233
Living 233
Se@@ 233
Sincerely 233
analyze 233
atomic 233
cur@@ 233
destroy 233
ghost 233
heaven 233
pe 233
sis 233
sofa 233
steam 233
visual 233
David 232
Jo@@ 232
adequate 232
advances 232
amusement 232
bio@@ 232
fashionable 232
fied 232
forces 232
gentle 232
ko@@ 232
lets 232
limitation 232
mission 232
possibilities 232
recall 232
tight 232
ving 232
000 231
Electronic 231
Help 231
Robert 231
San@@ 231
cate 231
dolls 231
expectations 231
fertility 231
gene 231
jumped 231
monday 231
oun@@ 231
rel@@ 231
rented 231
resulting 231
tone 231
Act 230
Bye 230
DS 230
Statistics 230
TH@@ 230
businesses 230
combination 230
ell@@ 230
encourages 230
evil 230
incentives 230
initial 230
rabbit 230
reprocessing 230
sec@@ 230
tw@@ 230
voices 230
28@@ 229
cartoons 229
cated 229
collection 229
favor 229
hopefully 229
ore 229
potatoes 229
procedure 229
robotic 229
signs 229
su 229
terribly 229
you@@ 229
238-240 228
Celsius 228
For@@ 228
Report 228
af@@ 228
cli@@ 228
conduct 228
definition 228
fifth 228
grilled 228
highschool 228
hiking 228
household 228
quantity 228
smooth 228
super@@ 228
sustain 228
800 227
LA 227
Ra@@ 227
Working 227
article@@ 227
balls 227
bone 227
cooperation 227
creation 227
inspired 227
install 227
matches 227
partners 227
reader 227
shouted 227
springs 227
&_@@ 226
Hi@@ 226
Maria 226
Too 226
Under 226
advertisements 226
bell 226
cater 226
cough 226
greeting 226
ji@@ 226
minimize 226
occurs 226
plot 226
posting 226
province 226
reception 226
sting 226
stroke 226
audio 225
concentration 225
employed 225
exc@@ 225
fifteen 225
ited 225
ju@@ 225
miles 225
obstacles 225
performances 225
positions 225
pull 225
silence 225
suprised 225
verb 225
Be@@ 224
LO@@ 224
Rock 224
Sushi 224
Ukraine 224
Work 224
cho@@ 224
continuing 224
defined 224
didnt 224
din@@ 224
launched 224
mentally 224
personnel 224
route 224
secondary 224
shining 224
tackle 224
trash 224
volunteers 224
Alice 223
Community 223
IC@@ 223
Yu@@ 223
accurate 223
block 223
cel@@ 223
consumer 223
equipped 223
flies 223
ger@@ 223
grandma 223
maximum 223
mess 223
onion 223
picnic 223
sets 223
un 223
weapon 223
49@@ 222
6th 222
Lots 222
Microsoft 222
Reactors 222
acts 222
adopt 222
belonged 222
dorm 222
fac@@ 222
ke@@ 222
mystery 222
phase 222
preventing 222
souvenir 222
starring 222
stra@@ 222
ugly 222
unpleasant 222
Toshiba 221
environmentally 221
ess@@ 221
ining 221
mixi 221
moreover 221
nickname 221
tendency 221
tional 221
Diary 220
dessert 220
enthusiastic 220
fitness 220
insects 220
launch 220
respond 220
roommates 220
ton@@ 220
uni@@ 220
2030 219
CNN 219
General 219
James 219
aims 219
appetite 219
bedroom 219
boxes 219
expressed 219
fri@@ 219
limitations 219
lion 219
ner@@ 219
requested 219
researching 219
scientist 219
shocking 219
shooting 219
tem@@ 219
ur 219
vulnerable 219
walls 219
EN 218
GIF 218
Sp@@ 218
boots 218
bus@@ 218
cigarette 218
distinguish 218
formed 218
hay 218
ine@@ 218
input 218
monitoring 218
outcome 218
Basically 217
Eve 217
River 217
accounts 217
calendar 217
ell 217
halls 217
hidden 217
hurts 217
incorrect 217
innocent 217
largely 217
lesser 217
ology 217
ow@@ 217
posts 217
remaining 217
tends 217
ward 217
10th 216
2050 216
Barcelona 216
Nara 216
eing 216
filmed 216
homeless 216
movements 216
off@@ 216
pan@@ 216
predict 216
protected 216
storm 216
trans@@ 216
Feb 215
Mom 215
Seattle 215
Several 215
Sun 215
Testing 215
ale 215
allowing 215
bitter 215
driven 215
expectation 215
implementing 215
ire 215
loving 215
plus 215
CH@@ 214
Computer 214
Modern 214
arise 214
assignments 214
breeze 214
colored 214
dating 214
dramatically 214
episodes 214
guilty 214
ham 214
news/@@ 214
ori 214
ori@@ 214
participants 214
pattern 214
photograph 214
realistic 214
revenue 214
shaking 214
shoot 214
spanish 214
tly 214
twelve 214
violence 214
writers 214
advertised 213
assume 213
ce@@ 213
chan 213
cloud 213
investing 213
iting 213
mode 213
ot 213
radioactivity 213
reduction 213
rough 213
server 213
wished 213
,2009 212
Kindle 212
Vi@@ 212
advices 212
aquarium 212
cm 212
decade 212
figures 212
ist 212
resolution 212
1996 211
SO 211
acceptable 211
didn 211
dr@@ 211
electronics 211
gun 211
ing-@@ 211
knee 211
ple 211
portable 211
weakness 211
.. 210
Turkey 210
Unlike 210
accents 210
allocated 210
app@@ 210
doors 210
drawn 210
fun@@ 210
graphic 210
ious 210
pen@@ 210
presence 210
pretend 210
prison 210
readers 210
recovery 210
restart 210
situated 210
viewing 210
Arabic 209
Hospital 209
Jackson 209
attempt 209
back@@ 209
bite 209
chef 209
comparing 209
deliver 209
flexible 209
mask 209
philosophy 209
script 209
sel@@ 209
sm@@ 209
socially 209
soldiers 209
tation 209
va 209
wan@@ 209
warning 209
39@@ 208
Christian 208
Dragon 208
Engineers 208
Miss 208
Tower 208
abuse 208
cla@@ 208
coast 208
d-@@ 208
ided 208
illegal 208
labour 208
lish 208
medal 208
merely 208
mini 208
n.d 208
passes 208
por@@ 208
removed 208
supports 208
tied 208
treasure 208
upgrading 208
zation 208
400 207
Afterwards 207
Anna 207
E. 207
Electric 207
GFR 207
Introduction 207
Karaoke 207
Medisave 207
ane 207
bean 207
equipments 207
grocery 207
happend 207
immediate 207
invitation 207
ites 207
maintaining 207
rac@@ 207
requirement 207
sexual 207
storage 207
unfair 207
virtual 207
ER@@ 206
Economic 206
Little 206
Lu@@ 206
NOT 206
Teacher 206
accessible 206
ative 206
behaviour 206
climbed 206
cups 206
deli@@ 206
earned 206
establish 206
fake 206
ought 206
some@@ 206
2.@@ 205
AL 205
Look 205
ONE 205
abandoned 205
actively 205
avoided 205
bro@@ 205
costume 205
define 205
diff@@ 205
disabled 205
dra@@ 205
elevator 205
every@@ 205
hahaha 205
lied 205
neighbors 205
reservation 205
rose 205
southern 205
submit 205
Age 204
Hu@@ 204
Sen@@ 204
aff@@ 204
afterwards 204
compulsory 204
differ@@ 204
educate 204
goverment 204
he@@ 204
injury 204
kilometers 204
long-term 204
opposition 204
outweigh 204
shing 204
tuition 204
winning 204
12th 203
Elderly 203
age@@ 203
banana 203
chip 203
collapse 203
grows 203
mindset 203
nursery 203
pulled 203
religious 203
remained 203
soci@@ 203
steak 203
unemployment 203
win@@ 203
Shizuoka 202
Switzerland 202
Whatever 202
ami 202
apologize 202
char@@ 202
fired 202
length 202
occasionally 202
om 202
resolve 202
sen 202
star@@ 202
tire 202
yu 202
22@@ 201
Fu@@ 201
Per@@ 201
chilly 201
collected 201
cooled 201
deaths 201
fascinated 201
performing 201
professors 201
proposal 201
rang 201
stri@@ 201
transferred 201
urgent 201
-4@@ 200
Centre 200
El@@ 200
Personally 200
Pi@@ 200
Ramen 200
ST@@ 200
bottles 200
closely 200
dining 200
effectiveness 200
ences 200
google 200
organise 200
prevention 200
reserved 200
tremendous 200
unit 200
wing 200
www.@@ 200
zero 200
J. 199
Mark 199
Mor@@ 199
West 199
Young 199
authorities 199
championship 199
crea@@ 199
cs 199
enthusiasm 199
feedback 199
forgive 199
gy 199
headed 199
hearts 199
highway 199
inf@@ 199
kick 199
pping 199
recycle 199
skunkworks 199
spaghetti 199
tragedy 199
.aspx 198
600 198
BUT 198
Friedland 198
Le@@ 198
NZ 198
accounting 198
broadcasting 198
cer@@ 198
funeral 198
guessed 198
hopes 198
ladies 198
observe 198
professionals 198
pushed 198
unforgettable 198
weekday 198
25th 197
33 197
AS 197
ESL 197
Manga 197
PS 197
Sweden 197
Wilpert 197
accomplish 197
ara 197
arrested 197
decreased 197
fashions 197
mechanical 197
needy 197
predicted 197
profits 197
qualified 197
railway 197
scholarship 197
skirt 197
souvenirs 197
stones 197
tension 197
Land 196
Ri@@ 196
Was 196
belief 196
dose 196
ere 196
files 196
flats 196
hotter 196
ku 196
mal@@ 196
minor 196
revolution 196
ridiculous 196
rushed 196
str@@ 196
Doctor 195
Give 195
Jap@@ 195
Opponents 195
barbecue 195
cancel 195
channels 195
disposal 195
exposure 195
ey@@ 195
powered 195
reflect 195
surroundings 195
swam 195
translator 195
vice 195
yeah 195
.asp 194
Tina 194
approaching 194
complaining 194
end@@ 194
frequency 194
heater 194
honestly 194
lasted 194
limits 194
permission 194
pursue 194
seeking 194
therapy 194
tube 194
vote 194
waking 194
wears 194
yummy 194
17th 193
Chicago 193
EL@@ 193
Hollywood 193
Study 193
Surprisingly 193
UN@@ 193
Youth 193
achievement 193
complained 193
disadvantage 193
enc@@ 193
enti@@ 193
finds 193
goodbye 193
hy@@ 193
iness 193
intermediate 193
investments 193
necessity 193
occured 193
p.@@ 193
planted 193
processing 193
react 193
refers 193
xD 193
AG@@ 192
Au@@ 192
Im@@ 192
Ni@@ 192
Plus 192
Radio 192
So@@ 192
absence 192
admission 192
bly 192
bound 192
brief 192
candy 192
cent 192
contained 192
immigrants 192
indirectly 192
intention 192
jams 192
occasion 192
son@@ 192
strike 192
tomatoes 192
worn 192
Cam@@ 191
Mary 191
New@@ 191
Pe@@ 191
St 191
celebration 191
comfortably 191
comprehension 191
contributing 191
dizzy 191
expense 191
external 191
fancy 191
hip 191
jet 191
manners 191
minded 191
og@@ 191
photographs 191
pupils 191
ray 191
recommendation 191
representative 191
roles 191
ry@@ 191
serves 191
species 191
£ 191
Boston 190
Few 190
Laboratory 190
Mexican 190
Nor@@ 190
Station 190
Women 190
attraction 190
click 190
critics 190
cul@@ 190
danced 190
expressing 190
incidents 190
internal 190
neglect 190
outstanding 190
presentations 190
s.com/@@ 190
shake 190
sharp 190
sings 190
uploaded 190
ups 190
wanting 190
wr@@ 190
00pm 189
AP@@ 189
Akihabara 189
Du@@ 189
Francisco 189
Star 189
big@@ 189
exception 189
her@@ 189
high@@ 189
ils 189
jealous 189
literally 189
swine 189
wn 189
ws 189
yard 189
75 188
Around 188
ballet 188
commit 188
considerable 188
crops 188
employer 188
flour 188
fundamental 188
grammatical 188
humidity 188
inner 188
ipod 188
jumping 188
lar 188
liquid 188
odd 188
offices 188
records 188
repaired 188
soil 188
towns 188
'cause 187
9th 187
Ah 187
Nagano 187
ama@@ 187
artificial 187
assigned 187
comm@@ 187
detailed 187
dialect 187
ged 187
idioms 187
improves 187
inconvenient 187
iron 187
lacking 187
loose 187
luckily 187
obtained 187
offering 187
owners 187
plain 187
puts 187
ref@@ 187
substantial 187
symbol 187
16th 186
B. 186
H. 186
IL@@ 186
Obviously 186
P. 186
Tell 186
Tra@@ 186
ans@@ 186
bla@@ 186
concrete 186
farmers 186
fer@@ 186
gloomy 186
holds 186
institutions 186
luxury 186
nu@@ 186
one@@ 186
pat@@ 186
powder 186
sw@@ 186
.edu/@@ 185
Col@@ 185
Frankly 185
Me@@ 185
Privacy 185
description 185
eb@@ 185
ened 185
extend 185
happ@@ 185
invent 185
invested 185
networks 185
realy 185
respected 185
structures 185
with@@ 185
IT@@ 184
UR@@ 184
adding 184
begining 184
biology 184
bonus 184
closing 184
cuz 184
dle 184
drums 184
evident 184
fy 184
int 184
la 184
lifts 184
ment@@ 184
miserable 184
nephew 184
pig 184
radi@@ 184
requesting 184
rhythm 184
surprisingly 184
ue 184
55 183
8th 183
DNA 183
Murakami 183
capability 183
cruel 183
enhanced 183
fought 183
fra@@ 183
han 183
ini@@ 183
medicines 183
necessarily 183
respectively 183
uneasy 183
Prefecture 182
SWCR 182
bicycles 182
catching 182
entirely 182
guarantee 182
handed 182
organic 182
pre 182
resistance 182
struck 182
wireless 182
Dr 181
Gra@@ 181
US@@ 181
association 181
blooming 181
chil@@ 181
christmas 181
dust 181
fatigue 181
mag@@ 181
misunderstanding 181
motor 181
non@@ 181
plates 181
polluted 181
premium 181
principal 181
ste@@ 181
NBA 180
Talking 180
Union 180
conscious 180
consecutive 180
constructed 180
directed 180
eats 180
fellow 180
gaining 180
gro@@ 180
mid@@ 180
optimistic 180
root 180
slower 180
unfamiliar 180
vacations 180
victim 180
well-@@ 180
African 179
BE 179
Kanji 179
ON@@ 179
Office 179
campaign 179
charged 179
dare 179
foundation 179
guard 179
hon@@ 179
informations 179
inherited 179
ound 179
pepper 179
resistant 179
subtitle 179
survival 179
tokyo 179
150 178
Ga@@ 178
Nonetheless 178
Scheme 178
Steve 178
cher 178
cigarettes 178
coin 178
differently 178
doc@@ 178
ili@@ 178
ily 178
ink 178
ism 178
moves 178
origin 178
priced 178
sacrifice 178
sodium 178
specifically 178
victory 178
Moon 177
NO 177
breaks 177
burned 177
committed 177
denied 177
earning 177
ection 177
evaluate 177
fairy 177
flu@@ 177
gri@@ 177
high-@@ 177
irritated 177
keys 177
licence 177
medium 177
our@@ 177
petrol 177
previously 177
pride 177
regions 177
serving 177
spell 177
34 176
Book 176
Tr@@ 176
WE 176
Wish 176
beaches 176
bothered 176
displayed 176
fastest 176
firstly 176
grave 176
operations 176
proverb 176
ratio 176
refer 176
tap 176
withstand 176
10000 175
1997 175
Exhibition 175
Housing 175
Jan 175
Lake 175
Sha@@ 175
THIS 175
anti@@ 175
arriving 175
colours 175
fantasy 175
influences 175
involve 175
networking 175
od@@ 175
planes 175
qualification 175
relieve 175
saves 175
self-@@ 175
sells 175
similarities 175
smiles 175
Brown 174
Busan 174
Fa@@ 174
NHK 174
Thinking 174
aries 174
bass 174
boiling 174
burger 174
consume 174
doll 174
easiest 174
estate 174
granted 174
investigation 174
ita 174
killer 174
micro@@ 174
motivate 174
ni 174
o'clock 174
probability 174
reactions 174
returning 174
seeds 174
slim 174
snowy 174
tically 174
tro@@ 174
violin 174
workshop 174
zone 174
ES@@ 173
Mac@@ 173
Netherlands 173
Res@@ 173
Wa@@ 173
Yoga 173
anc@@ 173
belive 173
candidate 173
command 173
eldest 173
emails 173
enemy 173
exchanged 173
exercising 173
extended 173
ght 173
niece 173
oneself 173
paste 173
remote 173
responsibilities 173
tan@@ 173
.gov.sg/@@ 172
OR@@ 172
Ser@@ 172
Try 172
accidentally 172
aggressive 172
barrier 172
broadcasted 172
charming 172
decorated 172
del@@ 172
discussing 172
excessive 172
genius 172
iled 172
implications 172
meets 172
pp 172
programmer 172
races 172
stor@@ 172
surgical 172
teenager 172
AK@@ 171
Beatles 171
Night 171
Shibuya 171
agreement 171
bo 171
brands 171
det@@ 171
eased 171
ented 171
garlic 171
hardest 171
junk 171
medi@@ 171
motorbike 171
nutrition 171
observed 171
partly 171
quarrel 171
restricted 171
runny 171
skip 171
squ@@ 171
2/@@ 170
55@@ 170
Cherry 170
Four 170
Haruki 170
Job 170
admitted 170
attitudes 170
automobile 170
cap@@ 170
carriers 170
centres 170
certificate 170
cont@@ 170
deeper 170
division 170
ets 170
fil@@ 170
fool 170
ld 170
musics 170
seafood 170
sm 170
strawberry 170
tail 170
za 170
19th 169
Cal@@ 169
DO 169
Latin 169
Melbourne 169
balcony 169
ced 169
curiosity 169
deciding 169
dedicated 169
differ 169
gi 169
interval 169
lang8 169
lation 169
poem 169
poses 169
ral 169
Madrid 168
Rome 168
Similarly 168
Wi@@ 168
ancestors 168
arrival 168
book@@ 168
cable 168
fission 168
hesitated 168
hostel 168
hybrid 168
ino 168
jog 168
meter 168
part@@ 168
sent@@ 168
shes 168
snowed 168
tune 168
Food 167
Kamakura 167
Kanto 167
LE@@ 167
Mer@@ 167
Miyazaki 167
Shinkansen 167
ars 167
bowling 167
celebrities 167
coins 167
ho 167
ler@@ 167
let@@ 167
monster 167
ory 167
pounds 167
steady 167
tank 167
8.@@ 166
Alzheimer 166
Idaho 166
Ki@@ 166
Math 166
app 166
confuse 166
contributions 166
departure 166
dresses 166
ening 166
han@@ 166
harvest 166
hehe 166
ie 166
lasts 166
makeup 166
poli@@ 166
post@@ 166
reserve 166
russian 166
scored 166
sumo 166
tofu 166
unlucky 166
verbs 166
37@@ 165
Holiday 165
bel@@ 165
calories 165
candidates 165
chorus 165
confortable 165
cons 165
creatures 165
disgusting 165
draft 165
eleven 165
fare 165
frist 165
handling 165
honey 165
interior 165
linked 165
ners 165
objects 165
orders 165
plan@@ 165
precise 165
spirits 165
spreading 165
stomachache 165
1995 164
A. 164
Accident 164
Clark 164
Dec 164
Dis@@ 164
Foreign 164
Lang8 164
Manager 164
Qu@@ 164
ai@@ 164
ara@@ 164
cherish 164
damages 164
dangers 164
desert 164
disappointment 164
endure 164
gadgets 164
luggage 164
namely 164
panic 164
prone 164
reaching 164
sho@@ 164
signal 164
48 163
AR 163
Lady 163
ano@@ 163
charity 163
chores 163
commuting 163
false 163
graduates 163
ics 163
leaf 163
markets 163
messy 163
represent 163
sive 163
sters 163
strain 163
thi@@ 163
uni 163
yuan 163
3000 162
32 162
Cri@@ 162
HAVE 162
Laura 162
Ne@@ 162
Truelove 162
bas@@ 162
chief 162
colleges 162
desperate 162
ea 162
ecting 162
element 162
engaged 162
examine 162
hairstyles 162
islands 162
kin 162
les@@ 162
nat@@ 162
pal@@ 162
protecting 162
reliability 162
represents 162
shop@@ 162
sit@@ 162
suggests 162
thunder 162
translating 162
3/@@ 161
Fi@@ 161
NE@@ 161
Okay 161
ality 161
announcement 161
appliances 161
champion 161
firework 161
founded 161
gre@@ 161
gue 161
kanji 161
mobility 161
motion 161
paragraph 161
promoting 161
re-@@ 161
tea@@ 161
throwing 161
Father 160
Girl 160
Group 160
Jazz 160
Needless 160
SU@@ 160
Ti@@ 160
Wii 160
ceiling 160
collecting 160
equally 160
gy@@ 160
heading 160
interaction 160
lar@@ 160
lowest 160
opponent 160
pra@@ 160
preferred 160
repeated 160
run@@ 160
socks 160
sunlight 160
tively 160
utilize 160
38@@ 159
67@@ 159
Cambridge 159
Do@@ 159
HO@@ 159
Japan@@ 159
Making 159
Out 159
The@@ 159
ama 159
balanced 159
camps 159
consuming 159
criteria 159
divert 159
employ 159
endless 159
ft 159
hea@@ 159
indicates 159
inst@@ 159
leaning 159
manual 159
melody 159
miracle 159
overnight 159
researched 159
sheep 159
Am@@ 158
Castle 158
Games 158
Han@@ 158
ID@@ 158
LY 158
Mat@@ 158
SH@@ 158
Tu@@ 158
VERY 158
Whether 158
appreciation 158
articles/@@ 158
che 158
combined 158
declining 158
detect 158
eco 158
ensures 158
excitement 158
fairly 158
ff 158
figured 158
forum 158
layer 158
lin@@ 158
managers 158
play@@ 158
pollen 158
qualities 158
ra 158
religions 158
remarkable 158
violent 158
waist 158
35@@ 157
CEO 157
CO@@ 157
Gen@@ 157
Jesus 157
Los 157
Security 157
Vegas 157
assessment 157
boo@@ 157
cam@@ 157
cks 157
decent 157
drum 157
gratitude 157
head@@ 157
identified 157
leak 157
lecturer 157
memorizing 157
replacement 157
steal 157
vocabularies 157
3.@@ 156
99@@ 156
Android 156
Mu@@ 156
Policy 156
Service 156
aids 156
alright 156
confirmed 156
crossing 156
dy@@ 156
far@@ 156
heating 156
lively 156
opera 156
outlet 156
pur@@ 156
sample 156
sch@@ 156
selection 156
ships 156
tech@@ 156
tidy 156
trick 156
zes 156
20.15 155
700 155
Based 155
Critics 155
IR@@ 155
Sur@@ 155
Ueno 155
alternatives 155
breathe 155
cked 155
doubts 155
eel 155
floors 155
ht 155
hum@@ 155
key@@ 155
kiss 155
longest 155
picking 155
properties 155
py 155
reluctant 155
ren@@ 155
snowboard 155
supervisor 155
tar@@ 155
top@@ 155
tting 155
tures 155
00am 154
Atomic 154
CO2 154
Friend 154
Getting 154
Las 154
Really 154
Sakura 154
Sch@@ 154
cally 154
complaints 154
cri@@ 154
diligent 154
documentary 154
eliminate 154
ency 154
expert 154
graph 154
import 154
letting 154
listed 154
ser 154
sights 154
sy 154
tommorow 154
wich 154
worthwhile 154
y/@@ 154
500@@ 153
Greece 153
Nintendo 153
Story 153
T. 153
airline 153
ank@@ 153
beginners 153
blow 153
breast 153
cabbage 153
diverse 153
downloaded 153
ena 153
graphics 153
hel@@ 153
lens 153
magnificent 153
nail 153
opens 153
racing 153
researcher 153
revise 153
smells 153
stays 153
sustainability 153
talkative 153
tiv@@ 153
world@@ 153
34@@ 152
Bul@@ 152
Communication 152
EC@@ 152
Gen 152
Hot 152
IC 152
MO@@ 152
Miyagi 152
Nations 152
Never 152
Rec@@ 152
administration 152
award 152
az@@ 152
belt 152
bility 152
border 152
claims 152
collage 152
detection 152
dictionaries 152
disclosure 152
extensive 152
frequent 152
implies 152
ingredient 152
laid 152
list@@ 152
lock 152
managing 152
mes 152
printer 152
roses 152
solid 152
tables 152
ura 152
web@@ 152
.gov/@@ 151
George 151
Kat@@ 151
Molten 151
Roppongi 151
Tri@@ 151
UM@@ 151
abundant 151
allergy 151
apartments 151
appeal 151
believes 151
cations 151
edition 151
explaining 151
gener@@ 151
grea@@ 151
influenza 151
intellectual 151
investors 151
mins 151
orchestra 151
practices 151
ries 151
thanked 151
38 150
Brazilian 150
Certainly 150
Denmark 150
Ku@@ 150
OM@@ 150
Pacific 150
ators 150
bal@@ 150
cafeteria 150
communities 150
contributes 150
corn 150
distant 150
distributed 150
duties 150
ements 150
freezing 150
frightened 150
gg@@ 150
giant 150
hearted 150
implanted 150
indoor 150
infected 150
participating 150
patterns 150
penalty 150
sexy 150
shelf 150
unstable 150
5000 149
66 149
Coming 149
Fall 149
Saitama 149
Straits 149
Things 149
VE 149
Years 149
ately 149
boil 149
breathing 149
considerations 149
consist 149
cooperate 149
e/@@ 149
kai 149
met@@ 149
p. 149
pie 149
sions 149
stored 149
universe 149
upcoming 149
worthy 149
24th 148
4/@@ 148
Above 148
SC@@ 148
Speech 148
Square 148
Sumo 148
Super 148
Up 148
Yo@@ 148
automatic 148
batteries 148
cat@@ 148
cre@@ 148
down@@ 148
embarrassing 148
energy@@ 148
facilitate 148
heritage 148
ical 148
logy 148
loneliness 148
nurses 148
ouse 148
recording 148
shadow 148
shoulders 148
slip 148
stuffed 148
vers 148
AI 147
ALL 147
Argentina 147
Care 147
Daily 147
Harvard 147
Kanagawa 147
Mal@@ 147
Money 147
Program 147
Sam@@ 147
Tsunami 147
Wall 147
aimed 147
athletes 147
boom 147
cent@@ 147
centuries 147
cheapest 147
crash 147
distribution 147
existed 147
fir@@ 147
health@@ 147
injuries 147
inspiration 147
newest 147
reci@@ 147
regretted 147
rescue 147
s.html 147
sections 147
sor@@ 147
| 147
AD@@ 146
Academy 146
Channel 146
DA 146
Get 146
Norrgard 146
Online 146
Or@@ 146
Others 146
Space 146
Travelling 146
adverse 146
baggage 146
butter 146
centers 146
dies 146
experiencing 146
grandpa 146
itchy 146
ja@@ 146
leadership 146
lier 146
lighter 146
mou@@ 146
nevertheless 146
nuclear-@@ 146
ome 146
peak 146
polish 146
praised 146
promoted 146
punishment 146
statue 146
stiff 146
tin@@ 146
tom@@ 146
65@@ 145
7/@@ 145
:@@ 145
Earthquake 145
Ever 145
Special 145
TR@@ 145
Ten@@ 145
U.S.A. 145
Washington 145
anti 145
bikes 145
blocks 145
care@@ 145
def@@ 145
dev@@ 145
ever@@ 145
explains 145
hor@@ 145
joyful 145
kan 145
mandatory 145
martial 145
oo 145
organ 145
organisation 145
planing 145
positively 145
propose 145
reasonably 145
sandwich 145
scare 145
settled 145
sli@@ 145
split 145
welcomed 145
29th 144
62 144
AB@@ 144
Aug 144
Basketball 144
Ber@@ 144
Easter 144
Grammar 144
Law 144
My@@ 144
SP@@ 144
Sun@@ 144
Toyota 144
UN 144
Z 144
complaint 144
conditioning 144
darkness 144
dates 144
disclose 144
ene@@ 144
facility 144
forgetting 144
hunt 144
intelligence 144
intensive 144
interact 144
modified 144
passenger 144
rejected 144
residential 144
see@@ 144
shelter 144
stream 144
tant 144
upgrade 144
whereby 144
Anime 143
Edo 143
HA@@ 143
Issues 143
Mag@@ 143
Somebody 143
Sony 143
Use 143
alert 143
artwork 143
bake 143
careless 143
conflict 143
cousins 143
decides 143
dness 143
dull 143
elling 143
engines 143
flood 143
foolish 143
justice 143
knife 143
piety 143
rain@@ 143
retrieved 143
soaked 143
sour 143
tale 143
ti 143
timing 143
wont 143
6.@@ 142
Bible 142
Blue 142
Greek 142
Kan@@ 142
Kingdom 142
Nagasaki 142
Snow 142
Texas 142
Tim 142
authors 142
chronic 142
conc@@ 142
concentrated 142
conf@@ 142
crashed 142
dental 142
diagnosed 142
elled 142
faith 142
hitting 142
idol 142
interviewed 142
net@@ 142
newly 142
ome@@ 142
oni@@ 142
parade 142
proceed 142
ranked 142
refreshing 142
resolved 142
sca@@ 142
sion@@ 142
sodium-cooled 142
tuna 142
writes 142
zu 142
1979 141
2009@@ 141
37 141
Cars 141
Ginza 141
Portuguese 141
SE@@ 141
accumulate 141
achievements 141
affairs 141
bul@@ 141
distances 141
gl@@ 141
grab 141
harsh 141
imported 141
ish 141
laziness 141
lon@@ 141
ol 141
passionate 141
petroleum 141
principle 141
societies 141
stud@@ 141
unfortunate 141
wed 141
weekly 141
09 140
18th 140
Avatar 140
Buddhist 140
Claus 140
Playing 140
Surely 140
Television 140
Typhoon 140
ah 140
ata 140
beers 140
childish 140
contacted 140
demanding 140
eg@@ 140
encountered 140
fabulous 140
fying 140
gender 140
gla@@ 140
hot@@ 140
independence 140
inevitably 140
lifetime 140
lunar 140
oppose 140
pc 140
permanent 140
pic@@ 140
pond 140
poster 140
pour 140
pronounciation 140
ration 140
sorts 140
steel 140
updated 140
val@@ 140
xi@@ 140
Bri@@ 139
Filipino 139
Gar@@ 139
Kin@@ 139
NYC 139
Udon 139
W. 139
apples 139
approval 139
cans 139
characteristic 139
di 139
ere@@ 139
es-@@ 139
fre@@ 139
gambling 139
globalization 139
gossip 139
hear@@ 139
homepage 139
j 139
murder 139
nal 139
nationality 139
occupation 139
organizing 139
proficiency 139
reward 139
shrinking 139
sucks 139
sunrise 139
unhealthy 139
wer 139
worm 139
.php 138
1990 138
CITATION 138
Five 138
GM 138
Oc@@ 138
TED 138
accessibility 138
al-@@ 138
arti@@ 138
blowing 138
bullet 138
circumstance 138
corporate 138
cy@@ 138
defence 138
dramatic 138
enter@@ 138
explanations 138
ghosts 138
honor 138
horses 138
konw 138
lenses 138
operates 138
pin@@ 138
playground 138
podcast 138
praying 138
requests 138
shouting 138
snows 138
temper 138
troubled 138
undergraduate 138
wea@@ 138
yer 138
08 137
5/@@ 137
Governments 137
Ja@@ 137
LOL 137
MRT 137
Network 137
Seeing 137
Self 137
a/@@ 137
advertis@@ 137
bamboo 137
basket 137
cancelled 137
cared 137
chest 137
corruption 137
cosmetics 137
crew 137
database 137
discipline 137
enjoyment 137
flash 137
impatient 137
oriented 137
possess 137
publish 137
ro 137
stared 137
stimulate 137
tru@@ 137
unity 137
vaccine 137
wheelchair 137
30am 136
As@@ 136
Asakusa 136
COM@@ 136
Cantonese 136
Has 136
Make 136
Martin 136
Sal@@ 136
Think 136
after@@ 136
associate 136
banks 136
berry 136
broad 136
consent 136
donate 136
escaped 136
fal@@ 136
hom@@ 136
housewife 136
inexpensive 136
interpreter 136
lic 136
locked 136
minimal 136
misunderstand 136
natives 136
operated 136
organising 136
pencil 136
purse 136
rings 136
ths 136
tter 136
vol@@ 136
wooden 136
000@@ 135
8/@@ 135
Cafe 135
Except 135
Girls 135
Pre@@ 135
RI@@ 135
Rose 135
Shin@@ 135
Tennis 135
abandon 135
bay 135
bench 135
bilingual 135
bug 135
burst 135
categories 135
considerably 135
covers 135
deserves 135
eu@@ 135
exchanging 135
expanding 135
fur@@ 135
hers 135
hug 135
interface 135
porcelain 135
puppy 135
sadly 135
shu@@ 135
sla@@ 135
sol@@ 135
stat@@ 135
strictly 135
tender 135
thr@@ 135
wins 135
Ab@@ 134
Birthday 134
Given 134
Jones 134
Mrs. 134
Oxford 134
Project 134
Real 134
Tak@@ 134
Ten 134
blanket 134
bombs 134
cheered 134
chin@@ 134
comma 134
coverage 134
devastating 134
devote 134
environments 134
failures 134
house@@ 134
hunger 134
in-@@ 134
indi@@ 134
initially 134
jin 134
overslept 134
para 134
phoned 134
pped 134
pressing 134
promises 134
qui@@ 134
recipes 134
refrigerators 134
rope 134
shipping 134
shout 134
stopping 134
swing 134
tab@@ 134
thoroughly 134
time@@ 134
travels 134
300@@ 133
Again 133
Bur@@ 133
Chin@@ 133
Considering 133
DO@@ 133
Everytime 133
Izakaya 133
PR@@ 133
Pen@@ 133
abnormal 133
apo@@ 133
athletic 133
backgrounds 133
depth 133
dumplings 133
fame 133
forests 133
heated 133
insisted 133
pit@@ 133
poems 133
pros 133
pushing 133
queue 133
sk 133
sky@@ 133
smoker 133
tivity 133
77@@ 132
BTW 132
H1N1 132
He@@ 132
Hy@@ 132
Keep 132
Management 132
OU@@ 132
Professor 132
Road 132
Sky 132
TIME 132
Town 132
USD 132
Wil@@ 132
cho 132
confidentiality 132
curriculum 132
destruction 132
dro@@ 132
gardens 132
gray 132
groom 132
hangover 132
inconvenience 132
logist 132
mil@@ 132
mit@@ 132
mixture 132
monkey 132
ocarina 132
occurring 132
org@@ 132
persuade 132
psychologist 132
seller 132
slide 132
stepped 132
supplies 132
tal@@ 132
theories 132
thrown 132
travelled 132
water@@ 132
.shtml 131
42 131
Airport 131
Cap@@ 131
Economics 131
Fin@@ 131
Final 131
Identification 131
Middle 131
Part 131
Pu@@ 131
Studies 131
addressed 131
approaches 131
ass 131
astonished 131
cares 131
category 131
costumes 131
county 131
cured 131
dea@@ 131
desu 131
drops 131
enroll 131
entertaining 131
involving 131
lessen 131
meaningless 131
occasions 131
practising 131
pressed 131
purple 131
rated 131
sees 131
show@@ 131
sincere 131
skipped 131
soba 131
stole 131
substances 131
tech 131
unexpectedly 131
ura@@ 131
wether 131
Anyone 130
CV 130
Gi@@ 130
IK@@ 130
Ireland 130
News/@@ 130
Niigata 130
Process 130
Queen 130
SO@@ 130
Sy@@ 130
Tomo 130
Welcome 130
behaviors 130
blew 130
celebrating 130
charm 130
emphasize 130
ew 130
faculty 130
frame 130
hairstyle 130
hates 130
hey 130
illustration 130
immigration 130
lands 130
leakage 130
lips 130
officials 130
profession 130
reads 130
selecting 130
sixth 130
tropical 130
unlikely 130
waiter 130
yogurt 130
03 129
Always 129
Council 129
Game 129
Imagine 129
LI@@ 129
Narita 129
Normally 129
On@@ 129
Review 129
ami@@ 129
boarding 129
butterfly 129
cha 129
controversy 129
deer 129
defeated 129
desired 129
discussions 129
elegant 129
eness 129
fatal 129
finals 129
fire@@ 129
fu 129
grad 129
hired 129
land@@ 129
misunderstood 129
on-@@ 129
organs 129
palace 129
power@@ 129
princess 129
recieved 129
settle 129
slipped 129
supercritical 129
supporters 129
titles 129
vivid 129
Death 128
Healthcare 128
Soviet 128
Temple 128
Yu 128
beatiful 128
bers 128
blamed 128
cellular 128
chairs 128
chapter 128
containing 128
conversion 128
convert 128
folk 128
gentleman 128
happiest 128
memorable 128
monetary 128
ow 128
preserve 128
recycled 128
resist 128
rumor 128
shin@@ 128
shoud 128
tele@@ 128
tin 128
tought 128
ye 128
.net/@@ 127
0000 127
1000@@ 127
AC 127
Apparently 127
Bra@@ 127
Cy@@ 127
Hel@@ 127
Hydrogen 127
Jo 127
Sol@@ 127
Turkish 127
accessories 127
aloud 127
cafes 127
checkup 127
coo@@ 127
defeat 127
extraordinary 127
globe 127
hop 127
indicate 127
kidding 127
laptops 127
medication 127
od 127
owned 127
participation 127
pilot 127
resting 127
reunion 127
rivers 127
satisfying 127
sized 127
snake 127
snow@@ 127
subsidy 127
tle 127
une 127
walks 127
wow 127
3-@@ 126
6/@@ 126
Cause 126
Cla@@ 126
Class 126
Dutch 126
Finance 126
Her@@ 126
agencies 126
angel 126
ann@@ 126
answering 126
apparently 126
arrangement 126
brea@@ 126
clu@@ 126
compli@@ 126
components 126
conservative 126
convince 126
dilemma 126
dive 126
ected 126
enrolled 126
exhibitions 126
fication 126
grey 126
ket 126
marvelous 126
mutual 126
ney 126
officers 126
oning 126
packing 126
politician 126
purchased 126
recognition 126
t/@@ 126
tch 126
thai 126
theirs 126
30th 125
ATION 125
Bali 125
Can@@ 125
III 125
NO@@ 125
Nov 125
Salt 125
acid 125
alcoholic 125
analyzing 125
auction 125
ban@@ 125
communications 125
consequently 125
conversational 125
convey 125
decorate 125
em 125
hol@@ 125
informal 125
interviewer 125
ist@@ 125
logged 125
luxurious 125
march 125
med@@ 125
penicillin 125
powers 125
prevents 125
roughly 125
spec@@ 125
strengthen 125
test@@ 125
traditions 125
ult 125
unclear 125
understandable 125
wheels 125
36 124
9/@@ 124
900 124
90@@ 124
BE@@ 124
Ichiro 124
Organization 124
PSP 124
Ru@@ 124
Sho@@ 124
Ty@@ 124
U.S 124
acquaintance 124
aga@@ 124
aircraft 124
anda 124
antly 124
att@@ 124
bakery 124
bones 124
bun@@ 124
celebrity 124
contemporary 124
focuses 124
fridge 124
gum 124
ier 124
ii 124
know@@ 124
lend 124
majored 124
multi@@ 124
nest 124
nor@@ 124
opposing 124
oversea 124
populations 124
poured 124
praise 124
read@@ 124
rep@@ 124
repeatedly 124
smokers 124
soldier 124
sou@@ 124
spaces 124
splendid 124
staring 124
thou@@ 124
tim@@ 124
Cu@@ 123
Disneyland 123
ICE 123
Maintenance 123
Men 123
Recent 123
absolute 123
agriculture 123
ani 123
asset 123
avoiding 123
beca@@ 123
bee 123
bon@@ 123
broaden 123
cap 123
construct 123
crowds 123
enemies 123
females 123
funded 123
guns 123
hardworking 123
ination 123
ink@@ 123
liquor 123
mp@@ 123
muscular 123
mutation 123
nar@@ 123
noted 123
producer 123
prohibited 123
set@@ 123
si 123
somethings 123
submitted 123
tely 123
tens 123
treating 123
tweet 123
voca@@ 123
writings 123
39 122
67 122
Agatha 122
EM@@ 122
Football 122
Fukui 122
Senior 122
abstract 122
accommodate 122
ambulance 122
bec@@ 122
bling 122
buffet 122
conductor 122
constructing 122
conventionally 122
damn 122
destiny 122
diverting 122
dynamic 122
ech@@ 122
eyesight 122
gam@@ 122
generous 122
get@@ 122
ginger 122
graphite 122
hiring 122
humble 122
iced 122
indispensable 122
integrated 122
memorized 122
pensions 122
perfume 122
prototype 122
quiz 122
recommendations 122
returns 122
san@@ 122
sandwiches 122
solely 122
specialist 122
ultimately 122
waitress 122
waked 122
watermelon 122
26th 121
28th 121
36@@ 121
Charles 121
Famous 121
Library 121
RO@@ 121
Recentry 121
Restaurant 121
Sally 121
Start 121
Student 121
Weather 121
alism 121
approached 121
ari 121
backed 121
blackout 121
blank 121
browser 121
compromise 121
cop@@ 121
criticism 121
decoration 121
disp@@ 121
ece 121
examined 121
grasp 121
hop@@ 121
ici@@ 121
iling 121
imp@@ 121
incredibly 121
inert 121
inspection 121
kat@@ 121
lear@@ 121
len@@ 121
logic 121
mild 121
occupied 121
pile 121
rating 121
sation 121
shrines 121
temporarily 121
ust 121
well-being 121
writ@@ 121
Bea@@ 120
Building 120
DAY 120
Don@@ 120
Frequency 120
Guam 120
Ham@@ 120
IA 120
KFC 120
Kate 120
Kimono 120
Note 120
OMG 120
Rea@@ 120
Thomas 120
YOUR 120
Yahoo 120
Zac 120
accompanied 120
alway 120
amusing 120
authority 120
bacteria 120
congratulate 120
crossed 120
directions 120
drastically 120
essing 120
exploded 120
green@@ 120
instructions 120
joint 120
nails 120
p.m. 120
poetry 120
s.org/@@ 120
targets 120
tat@@ 120
turtle 120
unemployed 120
wider 120
BECAUSE 119
Cold 119
Eating 119
Live 119
Lord 119
PO@@ 119
absorbed 119
achieving 119
asp@@ 119
barber 119
consisted 119
cour@@ 119
cro@@ 119
cru@@ 119
dent 119
develops 119
dropping 119
enrich 119
entitled 119
expenditures 119
fears 119
foo@@ 119
gas@@ 119
grant 119
humanity 119
hun@@ 119
incurred 119
invasion 119
ired 119
isolated 119
kan@@ 119
monkeys 119
onal 119
puzzle 119
salmon 119
screamed 119
simpler 119
specialized 119
spr@@ 119
tha 119
tical 119
wage 119
watches 119
widespread 119
.cfm 118
1994 118
44 118
44@@ 118
Ben@@ 118
Br@@ 118
Different 118
Fr@@ 118
HR 118
Kar@@ 118
La 118
Richard 118
Toeic 118
affecting 118
applicants 118
bel 118
bin 118
bow 118
boxing 118
cating 118
closest 118
competitiveness 118
conflicts 118
council 118
couse 118
coz 118
divorce 118
edit 118
eff@@ 118
enjoys 118
fist 118
fluency 118
folks 118
gallery 118
hamburgers 118
heal 118
itable 118
magnitude 118
observation 118
ona 118
onions 118
printing 118
remembering 118
ric 118
scar@@ 118
shine 118
shore 118
stea@@ 118
survived 118
sympathy 118
threats 118
tissue 118
tted 118
wan 118
whi@@ 118
Alison 117
Ap@@ 117
Article@@ 117
Baby 117
Democratic 117
Dream 117
MCYS 117
Master 117
Saint 117
Sarah 117
Tom@@ 117
WILL 117
artistic 117
barriers 117
bi 117
bosses 117
controlling 117
ensuring 117
equ@@ 117
fate 117
gadget 117
hou@@ 117
intense 117
maths 117
mm 117
moun@@ 117
ng@@ 117
owing 117
parked 117
person@@ 117
photo@@ 117
plural 117
postponed 117
random 117
residence 117
scenario 117
sci@@ 117
shoe 117
shrimp 117
sophomore 117
ssi@@ 117
the-@@ 117
tires 117
tory 117
uc@@ 117
udon 117
ARE 116
DOE 116
Financial 116
Gold 116
Hard 116
Movie 116
Sara 116
bat@@ 116
bing 116
buried 116
choo@@ 116
corporation 116
deals 116
delicate 116
donation 116
erd 116
exited 116
favorites 116
furthermore 116
heads 116
jo 116
lev@@ 116
manufacturers 116
meats 116
ough 116
ould 116
outdoors 116
oxygen 116
perception 116
roller 116
roots 116
seed 116
sentense 116
terminal 116
toast 116
unpredictable 116
75@@ 115
:00 115
Culture 115
Eastern 115
Eiken 115
Following 115
GO 115
Ikebukuro 115
Indonesian 115
QQ 115
Roman 115
Scientists 115
Spending 115
Tan 115
Technologies 115
Tur@@ 115
Yamagata 115
accomodation 115
ada 115
amongst 115
angle 115
approved 115
assets 115
bb@@ 115
belly 115
biological 115
careers 115
certification 115
dealt 115
desperately 115
divide 115
drives 115
ero@@ 115
ete 115
evaluation 115
exhausting 115
flaws 115
genetically 115
hu 115
ingly 115
keeper 115
kings 115
lated 115
mochi 115
noun 115
permit 115
quietly 115
rolled 115
sorrow 115
speci@@ 115
sticks 115
trading 115
tricks 115
truck 115
ude 115
utilized 115
var@@ 115
voluntary 115
woods 115
yaki 115
Australians 114
Bob 114
Che@@ 114
DI@@ 114
Eng@@ 114
Kagoshima 114
Lost 114
Michigan 114
Ob@@ 114
Okonomiyaki 114
Plan 114
Victoria 114
beating 114
ben@@ 114
defin@@ 114
ella 114
enterprises 114
exam@@ 114
finishes 114
foremost 114
frustrating 114
functional 114
haircut 114
hits 114
homeworks 114
idiom 114
inv@@ 114
lighting 114
low@@ 114
obliged 114
photographer 114
pic 114
pper 114
prayed 114
rank 114
rubber 114
scope 114
screaming 114
severely 114
sha 114
shapes 114
shots 114
sooo 114
substance 114
timetable 114
trends 114
trivial 114
tual 114
valid 114
vending 114
visitor 114
weaknesses 114
yield 114
AV@@ 113
Diffusion 113
IB@@ 113
Originally 113
Overall 113
Tai@@ 113
acceptance 113
appro@@ 113
architect 113
backs 113
beliefs 113
bu 113
carrot 113
connecting 113
departments 113
equivalent 113
fits 113
foward 113
goo@@ 113
historic 113
inj@@ 113
insi@@ 113
institution 113
issued 113
landlord 113
libraries 113
maintained 113
memorial 113
minority 113
modify 113
multi 113
nam@@ 113
obstacle 113
pho@@ 113
plum 113
potentially 113
prior 113
quote 113
scolded 113
sil@@ 113
span 113
.1 112
Administration 112
CAN 112
Fi 112
Ger@@ 112
Ju@@ 112
Nam 112
Pop@@ 112
SE 112
Seven 112
Universal 112
announce 112
av@@ 112
branches 112
chan@@ 112
cheering 112
combine 112
committee 112
en/@@ 112
ence@@ 112
evi@@ 112
expen@@ 112
expertise 112
full@@ 112
hottest 112
hur@@ 112
infection 112
intr@@ 112
landscapes 112
lating 112
natto 112
notion 112
obesity 112
q 112
sence 112
sin 112
spe@@ 112
wings 112
youngsters 112
Advisory 111
Cambodia 111
Current 111
EX@@ 111
End 111
Full 111
Graying 111
Jason 111
Pat@@ 111
Pres@@ 111
ade 111
amateur 111
animations 111
appropriately 111
bat 111
break@@ 111
capture 111
cooker 111
cost@@ 111
desktop 111
diabetes 111
dialogue 111
eable 111
eclipse 111
engage 111
exiting 111
fortunate 111
fry 111
gging 111
hinder 111
indicated 111
knocked 111
lacks 111
nuclear@@ 111
operator 111
opposed 111
para@@ 111
qualifications 111
regulation 111
relating 111
rocks 111
sum@@ 111
trusted 111
urge 111
viewers 111
villages 111
wrapped 111
32@@ 110
47 110
Aichi 110
Arizona 110
Coffee 110
DE@@ 110
Examination 110
Further 110
GOOD 110
Hmm 110
Jim 110
Jobs 110
Joe 110
Media 110
NASA 110
Te@@ 110
aka 110
assured 110
ation@@ 110
availability 110
berg 110
brains 110
bugs 110
calorie 110
chase 110
consult 110
dation 110
eastern 110
failing 110
has@@ 110
illy 110
lists 110
mechanism 110
periods 110
pitch 110
prosperity 110
readily 110
retain 110
simultaneously 110
sink 110
sue 110
towel 110
uniforms 110
wo@@ 110
wrap 110
y_@@ 110
Bon@@ 109
Linux 109
May@@ 109
Nick 109
Peace 109
Practice 109
Silver 109
TE@@ 109
Takoyaki 109
Website 109
accuracy 109
act@@ 109
advancements 109
animated 109
apologized 109
attendant 109
attracts 109
bachelor 109
cc@@ 109
chess 109
combustion 109
cookie 109
criticized 109
dit@@ 109
economies 109
estimate 109
faults 109
flag 109
gloves 109
grapes 109
ick@@ 109
intervention 109
ires 109
journalist 109
lane 109
manufacture 109
mers 109
mini@@ 109
physi@@ 109
pudding 109
raises 109
relate 109
renew 109
reporter 109
revenge 109
ringing 109
rises 109
secretly 109
shool 109
significance 109
stew 109
tile 109
ultimate 109
viable 109
weaker 109
zz@@ 109
Angeles 108
Ball 108
Far@@ 108
Fer@@ 108
Guangzhou 108
Ice 108
Ver@@ 108
airplanes 108
alleviate 108
arr@@ 108
assumed 108
bears 108
briefly 108
c/@@ 108
comedian 108
comunicate 108
consultant 108
dancer 108
dances 108
dated 108
emit 108
energies 108
facial 108
fm 108
grammatically 108
instantly 108
ize 108
lap 108
malls 108
mat@@ 108
melt 108
moderate 108
mon 108
ono 108
oring 108
pains 108
painter 108
pharmacy 108
profitable 108
punished 108
ruined 108
sam@@ 108
sticky 108
suited 108
tiredness 108
tives 108
units 108
whoever 108
zy 108
87@@ 107
Beautiful 107
Chan 107
DC 107
Enjoy 107
Gallery 107
LIFE 107
League 107
Marathon 107
Max 107
Mus@@ 107
Net 107
Opera 107
Prince 107
Somehow 107
Studio 107
accompany 107
bathtub 107
beds 107
boards 107
captain 107
cit@@ 107
content@@ 107
counter@@ 107
covering 107
deci@@ 107
dem@@ 107
dignity 107
dou@@ 107
eliminated 107
esp@@ 107
fails 107
filling 107
fixing 107
heroine 107
hills 107
illa 107
langu@@ 107
law@@ 107
lo 107
mile 107
ole 107
pouring 107
reg@@ 107
rolling 107
sing@@ 107
spouse 107
strive 107
strongest 107
suspect 107
tiger 107
upstairs 107
van 107
visible 107
wat@@ 107
whilst 107
yu@@ 107
2009/@@ 106
85 106
Bad 106
Beside 106
Cou@@ 106
Des@@ 106
Junior 106
Lunch 106
Ocean 106
Often 106
Saudi 106
Training 106
ables 106
absorb 106
becasue 106
beloved 106
compositions 106
consciousness 106
dementia 106
demographic 106
describes 106
dor@@ 106
downturn 106
drain 106
dressing 106
ense 106
flexibility 106
flowing 106
grabbed 106
gran@@ 106
heared 106
ign 106
illustrate 106
inadequate 106
invisible 106
lawyer 106
lemon 106
manpower 106
mornings 106
mushrooms 106
naked 106
ore@@ 106
outgoing 106
pad 106
panels 106
pillow 106
portrait 106
ranking 106
ruin 106
sessions 106
specialty 106
swee@@ 106
tain 106
theaters 106
tho@@ 106
tit@@ 106
toxic 106
ts/@@ 106
ves@@ 106
volunteering 106
Aikido 105
BU@@ 105
Finland 105
Florida 105
Haha 105
Ir@@ 105
Ky@@ 105
MAR@@ 105
Mao 105
Mobile 105
Republic 105
Royal 105
Yen 105
accepting 105
appliance 105
assistants 105
attach 105
challenged 105
civilization 105
clip 105
competent 105
confusion 105
cotton 105
debt 105
depressing 105
devoted 105
disabilities 105
disturb 105
divorced 105
educa@@ 105
encies 105
er-@@ 105
farmer 105
fro@@ 105
futon 105
genre 105
glance 105
hair@@ 105
harmony 105
hiding 105
jail 105
kid@@ 105
lasting 105
laughter 105
lean 105
lit 105
nerves 105
partial 105
proc@@ 105
real@@ 105
reform 105
sely 105
ush@@ 105
viewpoint 105
2014 104
69@@ 104
99 104
Anne 104
BO@@ 104
Bill 104
Dad 104
Gr@@ 104
Grand 104
HE@@ 104
Honda 104
Innovation 104
Pla@@ 104
Rain 104
Sept 104
Sum@@ 104
Tha@@ 104
Twilight 104
audiences 104
bitten 104
cave 104
connections 104
couldn 104
cow 104
defend 104
diversity 104
fic@@ 104
frustration 104
gent 104
hesitation 104
hockey 104
lifestyles 104
magical 104
melted 104
ort 104
partially 104
peach 104
peculiar 104
principles 104
proves 104
purchasing 104
rat 104
reflected 104
ried 104
runner 104
shell 104
spea@@ 104
steadily 104
stove 104
struggled 104
sud@@ 104
tenses 104
thy 104
ures 104
warned 104
weigh 104
wid@@ 104
07@@ 103
43 103
Bank 103
ET 103
Open 103
Philippine 103
Upgrading 103
WITH 103
Wind 103
albums 103
au 103
bless 103
browse 103
campaigns 103
cents 103
combat 103
consumed 103
countless 103
cricket 103
criticize 103
develop@@ 103
devil 103
ean 103
eni@@ 103
ental 103
entertain 103
evolution 103
free@@ 103
freind 103
geography 103
grounds 103
identifying 103
injection 103
intern 103
legend 103
lined 103
liver 103
loads 103
longing 103
mel@@ 103
mic 103
mo 103
mp3 103
msn 103
nec@@ 103
noises 103
nuclear_@@ 103
officially 103
oro@@ 103
ounded 103
pal 103
pas@@ 103
policeman 103
prominent 103
references 103
respective 103
restroom 103
samurai 103
seasonal 103
shit 103
sleeps 103
speeches 103
sty 103
sweating 103
teen 103
twins 103
univercity 103
Advanced 102
Alex 102
Becouse 102
Ca 102
Countries 102
Ke@@ 102
Manpower 102
OO@@ 102
PCs 102
Sounds 102
aliens 102
cheating 102
chopsticks 102
cial 102
clean@@ 102
conver@@ 102
corporations 102
corrects 102
coughing 102
deposit 102
eagerly 102
earth@@ 102
elected 102
emotionally 102
even@@ 102
fam@@ 102
freinds 102
friendships 102
global@@ 102
guidance 102
handmade 102
hardware 102
how@@ 102
ids 102
itch 102
ith 102
king@@ 102
knit 102
low-@@ 102
outline 102
owns 102
p/@@ 102
panel 102
paperbacks 102
poison 102
salty 102
sat@@ 102
slee@@ 102
sn@@ 102
societal 102
stro@@ 102
tear 102
travelers 102
tsu@@ 102
vacuum 102
vel@@ 102
violation 102
yama 102
2009/0@@ 101
54 101
Church 101
Commission 101
EV@@ 101
Genetics 101
HAD 101
Holland 101
LIKE 101
Meeting 101
Post 101
Remember 101
Sil@@ 101
Ste@@ 101
Sundays 101
Ther@@ 101
Trip 101
Vinci 101
adapted 101
aftershocks 101
aki 101
ania 101
beautifully 101
bli@@ 101
bothering 101
breads 101
console 101
dering 101
dig@@ 101
editor 101
err@@ 101
fies 101
ham@@ 101
haven 101
human@@ 101
ind 101
kit@@ 101
lled 101
loser 101
marked 101
mat 101
monuments 101
oke 101
patent 101
personalities 101
prince 101
pro 101
publishing 101
reliance 101
richer 101
salaries 101
signals 101
sixty 101
skate 101
tattoo 101
vary 101
vel 101
was@@ 101
22nd 100
68@@ 100
AI@@ 100
Article 100
Ben 100
Bon 100
Bor@@ 100
Code 100
ENGLISH 100
GW 100
Half 100
Irish 100
JAPAN 100
Main 100
Medi@@ 100
Mid 100
Pr@@ 100
Programme 100
Rather 100
adoption 100
ands 100
ater 100
aw@@ 100
bab@@ 100
beaten 100
belonging 100
classified 100
coincidence 100
edu@@ 100
ety 100
expansion 100
handicapped 100
heavier 100
infrastructures 100
lag 100
mal 100
nd 100
neighboring 100
pays 100
pdf/@@ 100
pound 100
precisely 100
pul@@ 100
red@@ 100
reject 100
relaxation 100
retail 100
sai 100
spo@@ 100
sport@@ 100
stylish 100
surgeons 100
symptom 100
vet 100
56 99
Bro@@ 99
Conclusion 99
Dance 99
Ed@@ 99
Engineer 99
Lisa 99
ME@@ 99
N. 99
Natural 99
UNIQLO 99
Val@@ 99
addiction 99
apps 99
arises 99
attracting 99
automobiles 99
bussiness 99
chu 99
coff@@ 99
comming 99
component 99
concluded 99
cooks 99
crack 99
craft 99
cuts 99
dd@@ 99
drawbacks 99
ela 99
favorable 99
graying 99
guards 99
imposed 99
inspire 99
maid 99
masters 99
matic 99
moto 99
neighbourhood 99
nie 99
octopus 99
oned 99
poly@@ 99
reli@@ 99
responses 99
rum@@ 99
satisfactory 99
seaside 99
shook 99
short@@ 99
stom@@ 99
summarize 99
teri@@ 99
too@@ 99
tum@@ 99
unconsciously 99
vegetarian 99
wealthy 99
.3 98
120 98
196@@ 98
2007@@ 98
27th 98
ATE 98
Buddhism 98
Correct 98
Dec@@ 98
Faithfully 98
Fire 98
Heritage 98
Medicine 98
PR 98
Pri@@ 98
Rice 98
Samurai 98
Shrine 98
Star@@ 98
archi@@ 98
atly 98
balloon 98
becuase 98
beforehand 98
browsing 98
bubble 98
calculate 98
cashier 98
convention 98
cosmetic 98
desires 98
ial 98
impolite 98
inal 98
independently 98
iri 98
lan@@ 98
lead-cooled 98
lid 98
lifespan 98
literacy 98
locate 98
merit 98
mi 98
nationalities 98
necessities 98
nig 98
op 98
pin 98
pumpkin 98
recom@@ 98
referred 98
ress 98
satellite 98
secretary 98
senses 98
shee@@ 98
skirts 98
soooo 98
spiritual 98
stir 98
thief 98
trainer 98
vable 98
visits 98
winds 98
//www.n@@ 97
1033 97
CCTV 97
Chile 97
Da 97
Dai@@ 97
Dar@@ 97
ESS 97
HI 97
High@@ 97
Hon@@ 97
Karate 97
Mil@@ 97
Morning 97
Tree 97
affection 97
alized 97
allowance 97
attributed 97
beli@@ 97
cloths 97
collapsed 97
conditioners 97
constraints 97
contro@@ 97
cource 97
cows 97
dat@@ 97
decreases 97
diagnosis 97
ette 97
favour 97
ferry 97
hoo@@ 97
imitate 97
inch 97
inflation 97
insect 97
lations 97
laun@@ 97
lent 97
logically 97
nonsense 97
pod 97
rugby 97
school@@ 97
sem@@ 97
sher 97
shuttle 97
sight@@ 97
stem 97
swear 97
tape 97
turkey 97
your@@ 97
000yen 96
10.00 96
19.00 96
3days 96
Better 96
Budget 96
Clearly 96
Foundation 96
HT@@ 96
Huntington 96
J.@@ 96
Ji 96
Kor@@ 96
Merry 96
Mixi 96
Nan@@ 96
Native 96
PS@@ 96
SF 96
Shakespeare 96
Soba 96
Sub@@ 96
Very-High-Temperature 96
allocation 96
alphabet 96
ambition 96
baking 96
beacuse 96
bond 96
bulb 96
capabilities 96
chart 96
counting 96
declared 96
defects 96
dia 96
discouraged 96
dragon 96
e.@@ 96
export 96
fashioned 96
fold 96
fulfilled 96
ght@@ 96
guided 96
hid 96
hood 96
https 96
ight 96
impressions 96
lamp 96
locations 96
masks 96
ored 96
pea@@ 96
pertinent 96
pics 96
saki 96
salts 96
sigh 96
tually 96
uma 96
wheat 96
° 96
00yen 95
4.@@ 95
Ban@@ 95
Bay 95
Conference 95
Czech 95
Environment 95
Ethics 95
FOR@@ 95
Fac@@ 95
Gaga 95
Israel 95
JO@@ 95
Jun 95
Mel@@ 95
Mountain 95
Onsen 95
Sou@@ 95
Swimming 95
TI@@ 95
Video 95
Whereas 95
acy 95
affair 95
architectural 95
baths 95
catastrophic 95
chemicals 95
closet 95
commented 95
commitment 95
continuation 95
crab 95
disastrous 95
essence 95
garage 95
gation 95
gear 95
generates 95
glo@@ 95
globally 95
guage 95
informing 95
installation 95
investigate 95
ive 95
jewelry 95
kawa 95
knees 95
ky@@ 95
lec@@ 95
lem 95
lian 95
litt@@ 95
ller 95
marine 95
meantime 95
mere 95
metro 95
microphone 95
mud 95
nasty 95
nit@@ 95
oka 95
oppotunity 95
pairs 95
payed 95
peaple 95
ppl 95
practically 95
psychologists 95
pt 95
rap 95
reactor@@ 95
rev@@ 95
schedules 95
september 95
stresses 95
sword 95
tal 95
that@@ 95
unavoidable 95
wal@@ 95
watch@@ 95
wives 95
.... 94
//www.gen-4.org/Technology/systems/@@ 94
1993 94
2008@@ 94
2years 94
Break 94
Euro@@ 94
Henry 94
Highway 94
Lin@@ 94
Obon 94
Physics 94
Piece 94
Saturdays 94
Son 94
Unless 94
WE@@ 94
agi 94
alike 94
annoy 94
ast@@ 94
busier 94
calligraphy 94
checks 94
compelled 94
cruise 94
dam@@ 94
dar@@ 94
debates 94
delight 94
ek 94
essed 94
evenings 94
fucking 94
generators 94
governmental 94
leaking 94
mayor 94
measured 94
mistaken 94
nutshell 94
occurrence 94
pipe 94
preventive 94
projected 94
questionnaire 94
registration 94
reliant 94
s.pdf 94
substitute 94
tales 94
thereby 94
trapped 94
tre 94
ul 94
wednesday 94
year@@ 94
.The 93
05 93
199@@ 93
95 93
Boys 93
Christ 93
Englsih 93
Giants 93
HE 93
Hat@@ 93
Keeping 93
MBA 93
PE 93
PIECE 93
Sadly 93
Web@@ 93
allergic 93
circulation 93
consulting 93
credits 93
defining 93
describing 93
dge 93
displays 93
eci@@ 93
eli@@ 93
exploring 93
fights 93
guaranteed 93
immune 93
ino@@ 93
introduces 93
jun@@ 93
knitting 93
lifes 93
monitored 93
mosquito 93
piled 93
poorer 93
poorly 93
preference 93
priest 93
priorities 93
prob@@ 93
pronounced 93
relying 93
resident 93
restrictions 93
runners 93
sand@@ 93
sensor 93
suke 93
tai@@ 93
trigger 93
ume 93
undergoing 93
vinegar 93
vocal 93
21@@ 92
31st 92
41 92
Books 92
Buddha 92
Car 92
Chemistry 92
Edison 92
Exam 92
F. 92
Han 92
Iraq 92
Je@@ 92
Kha@@ 92
LE 92
Meiji 92
Plant 92
Por@@ 92
Running 92
Super@@ 92
Titanic 92
Wor@@ 92
agricultural 92
arian 92
asi@@ 92
ath@@ 92
attain 92
bled 92
blo@@ 92
breakthrough 92
buttons 92
charges 92
chasing 92
chs 92
circuit 92
competing 92
demonstrated 92
dependence 92
detected 92
donated 92
eman 92
encouragement 92
extension 92
finances 92
floating 92
fulness 92
gged 92
goodness 92
grape 92
host@@ 92
ital 92
kitty 92
lim@@ 92
lip 92
marvellous 92
melting 92
obligations 92
ongoing 92
podcasts 92
pollute 92
pretended 92
pub@@ 92
pubs 92
recite 92
relay 92
responded 92
samples 92
sashimi 92
screening 92
sociable 92
sub 92
suck 92
switched 92
thirsty 92
threatening 92
tice 92
tioned 92
tun@@ 92
unlimited 92
utilization 92
wisely 92
1500 91
1980 91
2-@@ 91
Bal@@ 91
CE@@ 91
CG 91
Ge@@ 91
Insurance 91
Kam@@ 91
Naturally 91
Petersburg 91
Policies 91
Soccer 91
Thanksgiving 91
Uni@@ 91
Vienna 91
acquaintances 91
acquired 91
alien 91
alter@@ 91
america 91
assure 91
believing 91
bins 91
calmly 91
catastrophe 91
chill 91
chip@@ 91
cover@@ 91
demonstrate 91
dyed 91
elec@@ 91
ensured 91
entr@@ 91
euro@@ 91
fathers 91
fi 91
flo@@ 91
four@@ 91
greedy 91
learns 91
nabe 91
pancake 91
password 91
profound 91
rational 91
rods 91
sey 91
sizes 91
spac@@ 91
speedy 91
tains 91
thea@@ 91
tommorrow 91
tragic 91
ttering 91
wishing 91
-based 90
23rd 90
250 90
5-@@ 90
Bibliography 90
Change 90
Drama 90
Early 90
Golf 90
Ha 90
Id 90
It@@ 90
Kyushu 90
Louis 90
Market 90
Materials 90
PEOPLE 90
Transport 90
V. 90
Walking 90
accurately 90
appealing 90
arrives 90
ature 90
behalf 90
cage 90
cking 90
deaf 90
eless 90
emphasized 90
ethics 90
ethnic 90
exhaust 90
famili@@ 90
halfway 90
hara 90
links 90
naive 90
orientation 90
overwhelming 90
pale 90
paragraphs 90
preparations 90
questioned 90
rage 90
recalled 90
refer@@ 90
reviewed 90
reviews 90
sim@@ 90
sir 90
smartphone 90
soda 90
spectrum 90
spends 90
spider 90
starving 90
sto@@ 90
story@@ 90
supp@@ 90
tablet 90
themes 90
tre@@ 90
tunnel 90
unnatural 90
unsafe 90
unwilling 90
venture 90
viewed 90
vitamin 90
2008/0@@ 89
AD 89
App@@ 89
Boy 89
Civil 89
Computers 89
Coo@@ 89
Cro@@ 89
Den@@ 89
Diego 89
Dou@@ 89
Gre@@ 89
Iran 89
Likewise 89
MA@@ 89
Ori@@ 89
QU@@ 89
Regards 89
Solar 89
Sport 89
WOULD 89
Xmas 89
accumulated 89
ads 89
allocate 89
ancy 89
angu@@ 89
bac@@ 89
bananas 89
bble 89
bookshelf 89
brake 89
carrots 89
chu@@ 89
circu@@ 89
conquer 89
considerate 89
detrimental 89
dong 89
earliest 89
eighteen 89
excursion 89
exper@@ 89
experimental 89
farming 89
fries 89
geo@@ 89
greet 89
inappropriate 89
initiative 89
instruction 89
interpretation 89
ju 89
kei 89
lia 89
lightly 89
loan 89
median 89
minimized 89
puzzled 89
quicker 89
regrets 89
scor@@ 89
scra@@ 89
scratch 89
sensation 89
smelled 89
stically 89
suspicious 89
tori@@ 89
undeniable 89
watashi 89
willingness 89
witch 89
witnessed 89
yelled 89
.com/news/@@ 88
101 88
AF@@ 88
Corporation 88
Iphone 88
Jan@@ 88
Ken 88
Light 88
NEW 88
Phone 88
Pop 88
Scotland 88
Teachers 88
Team 88
Toy 88
Uranium 88
Wal@@ 88
acute 88
aku 88
ass@@ 88
ate@@ 88
carries 88
classrooms 88
clinical 88
commuter 88
competitors 88
con 88
container 88
creature 88
crush 88
deadly 88
dictation 88
discriminated 88
educating 88
gon@@ 88
info@@ 88
joking 88
kon@@ 88
laboratories 88
modest 88
nerve 88
nuts 88
ov@@ 88
preposition 88
publi@@ 88
rays 88
reaches 88
restriction 88
rit@@ 88
string 88
teamwork 88
tedious 88
tracked 88
umi 88
unt 88
uring 88
wandering 88
197@@ 87
Ann 87
Anonymous 87
At@@ 87
CA 87
Concerning 87
Fleming 87
Greenwich 87
Hakodate 87
Inception 87
NUS 87
Naruto 87
OUT 87
PRO@@ 87
Penicillin 87
SHOW 87
Sin@@ 87
Tiger 87
Travel 87
a-@@ 87
atelly 87
auto@@ 87
backup 87
ben 87
bru@@ 87
chin 87
cia 87
confess 87
contacts 87
counted 87
dow@@ 87
downstairs 87
emp@@ 87
enhancing 87
esses 87
fierce 87
flute 87
glory 87
gods 87
grants 87
hab@@ 87
handy 87
hosted 87
hurried 87
informa@@ 87
ini 87
inventing 87
lab@@ 87
life@@ 87
minu@@ 87
monsters 87
mun@@ 87
naughty 87
obey 87
oud 87
pacemaker 87
ples 87
posed 87
prejudice 87
pressures 87
primarily 87
rail 87
reflects 87
resigned 87
rolls 87
scarf 87
serial 87
ses@@ 87
siblings 87
sop@@ 87
spoon 87
steamed 87
steep 87
strawberries 87
supplements 87
theft 87
tightly 87
ting@@ 87
tolerance 87
tones 87
trace 87
tran@@ 87
tty 87
vague 87
warn 87
whit@@ 87
3G 86
4-@@ 86
47@@ 86
6-@@ 86
66@@ 86
Adam 86
Austria 86
Cat@@ 86
Doing 86
Engish 86
Fre@@ 86
Garden 86
Hsien 86
IF 86
Jon 86
Kon@@ 86
Pennsylvania 86
Perfect 86
Princess 86
Say 86
Viet 86
Word 86
about@@ 86
ach 86
addresses 86
admired 86
allo@@ 86
anne 86
awarded 86
backpack 86
blu@@ 86
budgets 86
butterflies 86
chee@@ 86
cockroach 86
compl@@ 86
cozy 86
currency 86
ections 86
emitted 86
enabled 86
exotic 86
firms 86
format 86
formation 86
formu@@ 86
groceries 86
hazard 86
incur 86
ity@@ 86
journal@@ 86
less@@ 86
mining 86
mom@@ 86
moms 86
other@@ 86
ous@@ 86
pickled 86
radish 86
reserves 86
romance 86
row@@ 86
sakura 86
shima 86
sliced 86
subsi@@ 86
suitcase 86
suspended 86
thats 86
titude 86
treats 86
union 86
vis@@ 86
120@@ 85
Belgium 85
Changing 85
Comparing 85
DJ 85
E.M. 85
Expo 85
HI@@ 85
Hakone 85
MS 85
OECD 85
OVER 85
PS3 85
Problems 85
Put 85
TER@@ 85
Traditional 85
Unfortun@@ 85
Vol@@ 85
Way 85
Within 85
Ya@@ 85
Yukata 85
abi 85
adjective 85
advertise 85
affluent 85
analyse 85
annually 85
arrogant 85
bou@@ 85
boun@@ 85
canada 85
charging 85
cheat 85
coke 85
colourful 85
converted 85
deck 85
dings 85
disco 85
eas 85
eas@@ 85
eng 85
expec@@ 85
explode 85
hard@@ 85
healing 85
hin@@ 85
holder 85
idiot 85
inefficient 85
mach@@ 85
males 85
mock 85
needless 85
neighbour 85
oko 85
port@@ 85
posi@@ 85
precautions 85
pronunciations 85
ranging 85
receptionist 85
regional 85
rival 85
roast 85
seaweed 85
shelves 85
spectacular 85
stal@@ 85
sth 85
stretch 85
suspected 85
taller 85
tel@@ 85
translations 85
typhoons 85
ums 85
und@@ 85
undoubtedly 85
usive 85
very@@ 85
world-@@ 85
wrist 85
york 85
/200@@ 84
2020 84
CN@@ 84
Catholic 84
Challenger 84
Coun@@ 84
Doraemon 84
Excel 84
GO@@ 84
Hen@@ 84
MP3 84
Mie 84
Much 84
Otaku 84
PE@@ 84
PER@@ 84
Sharing 84
THEY 84
Venice 84
ady 84
ange 84
anticipated 84
arising 84
bargain 84
basics 84
bathing 84
bun 84
cellphones 84
chaos 84
chers 84
congestion 84
controls 84
ction 84
dai@@ 84
deemed 84
delete 84
diffrent 84
disk 84
dless 84
ei 84
electro@@ 84
elephant 84
ement@@ 84
envious 84
excuses 84
feared 84
forma@@ 84
fs 84
hazardous 84
hurting 84
impose 84
info 84
kar@@ 84
label 84
lling 84
logi@@ 84
mice 84
n/@@ 84
offspring 84
onic 84
peri@@ 84
pills 84
placement 84
pockets 84
policy@@ 84
protein 84
realizing 84
rehabilitation 84
removal 84
resign 84
reverse 84
sciences 84
shameful 84
simplified 84
sity 84
sphere 84
statements 84
sty@@ 84
syn@@ 84
teenage 84
thriller 84
tion/@@ 84
toll 84
tours 84
tryed 84
tto 84
twin 84
universal 84
unk 84
warmth 84
worlds 84
0000@@ 83
1987 83
46 83
8-@@ 83
Angels 83
Anyhow 83
Ari@@ 83
Aussie 83
CM 83
Dawn 83
ET@@ 83
Fe@@ 83
Jay 83
Literature 83
Lucky 83
Malaysian 83
Mari@@ 83
PL@@ 83
Particularly 83
Police 83
Resort 83
SI@@ 83
Sei@@ 83
Supercritical 83
Tar@@ 83
Taylor 83
Tim@@ 83
Train 83
Ye@@ 83
Zoo 83
acknowledge 83
administrative 83
arrangements 83
asthma 83
athlete 83
ats 83
benef@@ 83
bento 83
bullying 83
burnt 83
cation@@ 83
corrosion 83
declined 83
earing 83
eries 83
excess 83
ford 83
gen 83
grow@@ 83
hospitalized 83
iTunes 83
ile 83
institutes 83
intersting 83
jima 83
layers 83
login 83
louder 83
nostalgic 83
overwhelmed 83
pals 83
paradise 83
peacefully 83
prepositions 83
provision 83
ption 83
ran@@ 83
recomend 83
recovering 83
regi@@ 83
sentenses 83
sits 83
sneakers 83
surgeon 83
threaten 83
turbine 83
turing 83
uri 83
vain 83
vampire 83
weddings 83
wee@@ 83
1990s 82
2015 82
2B@@ 82
52 82
59@@ 82
64 82
7.@@ 82
88 82
Cancer 82
Economist 82
Gas 82
Hearing 82
Hol@@ 82
Inside 82
Java 82
Loong 82
Net@@ 82
Pizza 82
Pokemon 82
RMB 82
Tor@@ 82
Wonderland 82
accessed 82
ao 82
apology 82
approve 82
article/@@ 82
backache 82
businessmen 82
ces@@ 82
clerks 82
commerce 82
concentrating 82
decorations 82
depres@@ 82
developers 82
did@@ 82
eco@@ 82
emi@@ 82
exhibit 82
feeding 82
fel@@ 82
fighter 82
fini@@ 82
freshmen 82
gardening 82
grand@@ 82
inclined 82
ira 82
july 82
landed 82
ligh@@ 82
meanwhile 82
mes@@ 82
midterm 82
plu@@ 82
preferences 82
pretending 82
pump 82
queen 82
redundant 82
rela@@ 82
repeating 82
sequence 82
solo 82
study@@ 82
tap@@ 82
threatened 82
tiveness 82
tracks 82
usu@@ 82
versions 82
withdraw 82
workout 82
zi@@ 82
"@@ 81
4000 81
51 81
Academic 81
Andrew 81
Ara@@ 81
Az@@ 81
Bridge 81
Christianity 81
Dark 81
Dog 81
ENT 81
Fro@@ 81
Iwate 81
Kind 81
LOVE 81
PU@@ 81
Photography 81
Ry@@ 81
Samsung 81
Sat@@ 81
Tam@@ 81
Top 81
Vol 81
WBC 81
accomplished 81
activ@@ 81
acu@@ 81
anced 81
and-@@ 81
bit@@ 81
brighter 81
businessman 81
clay 81
cleared 81
counts 81
desirable 81
desserts 81
dest@@ 81
destroying 81
discovering 81
distress 81
duc@@ 81
eared 81
ees 81
eled 81
eling 81
ept 81
forbidden 81
gawa 81
german 81
highlighted 81
hilarious 81
husbands 81
ica 81
kicked 81
kissed 81
kn@@ 81
lic@@ 81
liking 81
locals 81
lung 81
merits 81
muggy 81
nowhere 81
ool 81
open@@ 81
ora 81
owning 81
packages 81
posture 81
presenting 81
pun@@ 81
rehearsal 81
resolutions 81
separation 81
sixteen 81
suffers 81
teammates 81
technologically 81
thirteen 81
tian 81
tremendously 81
uki 81
uti@@ 81
vation 81
vessel 81
wound 81
wri@@ 81
zen 81
07 80
1900 80
AY 80
Ang@@ 80
Haneda 80
MA 80
Mar 80
Nabe 80
Norway 80
Plants 80
SS@@ 80
TING 80
Teaching 80
UL@@ 80
Wang 80
accidental 80
actresses 80
adventures 80
anese 80
arguing 80
aud@@ 80
bal 80
bare 80
brid@@ 80
buil@@ 80
coaster 80
constitution 80
corresponding 80
coud 80
cust@@ 80
dee@@ 80
deter@@ 80
determination 80
eal 80
ective 80
esteem 80
firmly 80
friend@@ 80
hardship 80
hectic 80
inning 80
intro@@ 80
inviting 80
juggling 80
lakes 80
lers 80
log@@ 80
lt 80
lun@@ 80
maximize 80
necklace 80
obsessed 80
ony 80
pain@@ 80
panda 80
prevalent 80
prizes 80
quo@@ 80
recruit 80
scream 80
semi 80
sewing 80
shar@@ 80
sitcom 80
slides 80
stand@@ 80
swimmer 80
tasting 80
termin@@ 80
thursday 80
timer 80
trail 80
ttle 80
ues 80
usi@@ 80
waiters 80
wander 80
woken 80
worship 80
04 79
Coast 79
Danish 79
Disease 79
Exp@@ 79
Gundam 79
Heart 79
Labor 79
Line 79
MacBook 79
Musical 79
Question 79
Sk@@ 79
Sri 79
Stone 79
TEST 79
Till 79
WHO 79
Whit@@ 79
ack 79
ald 79
ankle 79
apparent 79
articl@@ 79
ary@@ 79
assess 79
blocked 79
boyfriends 79
cheep 79
compose 79
concer@@ 79
consistent 79
crane 79
cucumber 79
dolphins 79
ecological 79
elderly-friendly 79
elderly@@ 79
fruitful 79
fur 79
genuine 79
girlfriends 79
gn@@ 79
handicap 79
holi@@ 79
homesick 79
iPhone4 79
incomes 79
ium 79
ja 79
je@@ 79
kitten 79
kno@@ 79
laying 79
loyalty 79
mineral 79
ood 79
optional 79
owe 79
page@@ 79
preserved 79
prompt 79
rai@@ 79
recieve 79
restrant 79
royal 79
servant 79
sleepiness 79
sole 79
surfed 79
takoyaki 79
tful 79
thermo@@ 79
upgraded 79
varied 79
wil@@ 79
zer 79
.co.uk/@@ 78
01 78
3M 78
6.html 78
:30 78
Architecture 78
Auckland 78
Baseball 78
Berlin 78
CON@@ 78
Cho@@ 78
Cost 78
Date 78
Dem@@ 78
Engli@@ 78
Environmental 78
Eschede 78
FIFA 78
Hanami 78
Hea@@ 78
Justin 78
Know 78
LCD 78
M.@@ 78
MSRs 78
Nanjing 78
Nuclear@@ 78
Op@@ 78
Out@@ 78
Outside 78
Pan 78
Poor 78
Roadmap 78
Small 78
Stop 78
THER 78
UC@@ 78
WHEN 78
Win@@ 78
aired 78
alist 78
appointed 78
bookstores 78
boredom 78
clips 78
codes 78
coll@@ 78
compensation 78
compromised 78
continually 78
developer 78
een 78
employ@@ 78
ential 78
estates 78
exer@@ 78
exit 78
fast@@ 78
fireflies 78
frying 78
gains 78
grandchildren 78
hereditary 78
heroes 78
influential 78
ing_@@ 78
irs 78
kimchi 78
lions 78
mushroom 78
nam 78
organizer 78
originated 78
poeple 78
poss@@ 78
processed 78
prospects 78
publications/@@ 78
releases 78
remedy 78
restarted 78
revised 78
sauna 78
squid 78
susceptible 78
territory 78
thly 78
tissues 78
uncertain 78
univ 78
ush 78
versa 78
viruses 78
08@@ 77
1970 77
Active 77
Bel@@ 77
Chi 77
Companies 77
Competition 77
Days 77
Dome 77
English@@ 77
FF@@ 77
Forrest 77
Glee 77
Ho 77
JI 77
Ji@@ 77
Name 77
PP@@ 77
SUMMER 77
Sake 77
Sex 77
Stra@@ 77
Tourism 77
Trade 77
adds 77
ak 77
analyzed 77
ase 77
booking 77
cabinet 77
cates 77
chang@@ 77
cin@@ 77
completion 77
dancers 77
dep@@ 77
depletion 77
detective 77
disappoint 77
disliked 77
dominant 77
econ@@ 77
ener@@ 77
envelope 77
financing 77
founder 77
ggy 77
heart@@ 77
hight 77
ing/@@ 77
kk@@ 77
kotatsu 77
las 77
lig@@ 77
lyric 77
mation 77
neat 77
negatively 77
peers 77
postcard 77
prayer 77
prec@@ 77
pregnancy 77
progressive 77
reali@@ 77
recorder 77
ree 77
reser@@ 77
ron 77
saf@@ 77
scarcity 77
separately 77
shampoo 77
shares 77
similarity 77
skillful 77
spoiled 77
studyed 77
tan 77
toilets 77
united 77
use@@ 77
user@@ 77
verse 77
vocation 77
wards 77
waterfall 77
wer@@ 77
wheather 77
wipe 77
wiped 77
word@@ 77
worsen 77
yak@@ 77
zu@@ 77
1.pdf 76
1980s 76
1984 76
ABOUT 76
Arabia 76
Blog 76
CP@@ 76
Congress 76
Dr. 76
Express 76
Ghibli 76
Helium 76
Lea@@ 76
MP@@ 76
Ming 76
Mit@@ 76
N.@@ 76
Regardless 76
Shinto 76
Som@@ 76
UP 76
VOA 76
You@@ 76
acquainted 76
alcho@@ 76
awards 76
behaved 76
bible 76
bil@@ 76
bles 76
captured 76
commercialization 76
confidential 76
definite 76
distinct 76
dom@@ 76
domin@@ 76
duration 76
expose 76
extract 76
fat@@ 76
flights 76
frank 76
goldfish 76
greetings 76
hairdresser 76
humorous 76
ick 76
ida 76
identi@@ 76
ille 76
ills 76
incentive 76
ineffective 76
inn 76
jap@@ 76
ket@@ 76
liber@@ 76
lities 76
lla 76
loses 76
nicer 76
oro 76
ourself 76
pad@@ 76
painters 76
pill 76
pon@@ 76
pottery 76
preliminary 76
prescription 76
refu@@ 76
removing 76
routes 76
sal 76
scent 76
sev@@ 76
shorts 76
solves 76
stm 76
strengths 76
sus@@ 76
tations 76
tening 76
thes 76
tier 76
tou@@ 76
tunes 76
tured 76
ui 76
very-high-temperature 76
wn@@ 76
-friendly 75
0.@@ 75
00AM 75
Afterward 75
Al 75
Alexander 75
Bou@@ 75
CA@@ 75
Char@@ 75
Cra@@ 75
Curry 75
FC 75
FRIENDS 75
HongKong 75
Jin@@ 75
Key 75
Kumamoto 75
Manchester 75
Mid@@ 75
Nam@@ 75
OK@@ 75
Place 75
Product 75
Rainy 75
Swiss 75
TA 75
Technical 75
Ton@@ 75
Tou@@ 75
Wh@@ 75
advancing 75
afterward 75
ako 75
alize 75
anti-@@ 75
arri@@ 75
bud@@ 75
bum@@ 75
carpet 75
commercials 75
counseling 75
defective 75
demonstration 75
density 75
designated 75
doubted 75
drea@@ 75
duce 75
embar@@ 75
employability 75
enjo@@ 75
ests 75
forcing 75
ful@@ 75
gig 75
icecream 75
idences 75
inhabitants 75
initiatives 75
inten@@ 75
italian 75
lawn 75
lee@@ 75
masterpiece 75
melon 75
monthes 75
of-@@ 75
pick@@ 75
rats 75
res 75
restrict 75
rewrite 75
scattered 75
soak 75
somthing 75
starbucks 75
stealing 75
sweated 75
tag@@ 75
them@@ 75
toeic 75
unch 75
usable 75
witness 75
10/@@ 74
2.html 74
53 74
ABLE 74
Accidents 74
BIBLIOGRAPHY 74
Band 74
Congratulations 74
Cooled 74
DPJ 74
Defense 74
Emily 74
Er@@ 74
Finding 74
Fourth 74
Hiragana 74
Humans 74
Japanease 74
Kou@@ 74
Mars 74
Nepal 74
Okayama 74
Photoshop 74
Season 74
Site 74
Sodium-Cooled 74
Therefor 74
Tsu@@ 74
Water@@ 74
adorable 74
bankrupt 74
brow@@ 74
but@@ 74
chea@@ 74
cheated 74
cicadas 74
cola 74
compact 74
complains 74
comprehensive 74
consul@@ 74
content/@@ 74
cultivate 74
depleting 74
dered 74
diffic@@ 74
dispute 74
drought 74
dumpling 74
ector 74
eive 74
emer@@ 74
endangered 74
enterprise 74
eth@@ 74
exchanges 74
fact@@ 74
famouse 74
forehead 74
fragrance 74
frog 74
hal@@ 74
hike 74
hiragana 74
hugged 74
imaginary 74
inferior 74
itis 74
ken@@ 74
loyal 74
mailed 74
mainland 74
mani@@ 74
maternity 74
mistook 74
nea@@ 74
nur@@ 74
old-age 74
onsen 74
overweight 74
pa 74
pay@@ 74
peop@@ 74
pianist 74
planting 74
pole 74
rag@@ 74
reports/@@ 74
reviewing 74
shiny 74
shor@@ 74
spectators 74
sper@@ 74
stocks 74
swa@@ 74
sweater 74
sweaty 74
ula@@ 74
ven 74
wear@@ 74
welcoming 74
ye@@ 74
zi 74
1985 73
400@@ 73
5.@@ 73
Allen 73
Beer 73
Bud@@ 73
CET 73
CH 73
Chris 73
Ei@@ 73
Formula 73
Gener@@ 73
Hayao 73
Inc 73
Incidentally 73
Lion 73
Ly@@ 73
Mizoguchi 73
Pal@@ 73
Pl@@ 73
Rachel 73
Smart 73
Valley 73
Want 73
War@@ 73
Waseda 73
acupuncture 73
adap@@ 73
adopting 73
ank 73
anny 73
aru 73
asian 73
bits 73
boy@@ 73
cer 73
computing 73
counties 73
cy 73
deleted 73
delightful 73
desks 73
distribute 73
dreamt 73
ege 73
employing 73
energy-@@ 73
engaging 73
eting 73
exaggerated 73
findings 73
fitted 73
fore 73
fru@@ 73
guidelines 73
honeymoon 73
html 73
individually 73
insomnia 73
itting 73
kara 73
light@@ 73
linguistics 73
losses 73
lows 73
medals 73
misuse 73
mul@@ 73
navy 73
neuro@@ 73
news@@ 73
operational 73
particles 73
pharmaceutical 73
po 73
polluting 73
progressing 73
recon@@ 73
represented 73
risky 73
scri@@ 73
sel 73
semin@@ 73
sensible 73
side@@ 73
snakes 73
sr@@ 73
ste 73
tec@@ 73
thes@@ 73
thro@@ 73
tis@@ 73
transformed 73
tricky 73
trumpet 73
twilight 73
ushi 73
utmost 73
valued 73
vin 73
wages 73
-to-@@ 72
//www.iaea.org/@@ 72
A.@@ 72
ABC 72
Cat 72
Chang 72
Country 72
Dea@@ 72
Excuse 72
Frank 72
Glo@@ 72
Gossip 72
Green@@ 72
Gro@@ 72
Hanshin 72
Heaven 72
Hongkong 72
Hor@@ 72
IKEA 72
Industry 72
Jean 72
Ken@@ 72
Knowing 72
Men@@ 72
Monica 72
Nicoll 72
Northern 72
PDF 72
Paper 72
Physical 72
RAINBOW 72
Subject 72
Theory 72
Trivago 72
YO@@ 72
alization 72
ards 72
attempts 72
beats 72
boomers 72
bout 72
burg 72
bury 72
candles 72
churches 72
cir@@ 72
claiming 72
clear@@ 72
closes 72
cology 72
copies 72
criti@@ 72
dig 72
disturbed 72
doesn 72
ef@@ 72
emperor 72
foster 72
from@@ 72
fulfilling 72
gal@@ 72
helpless 72
hus@@ 72
incapable 72
ind@@ 72
installing 72
itation 72
kong 72
le-@@ 72
lightning 72
mea@@ 72
messenger 72
mp 72
oma 72
pancakes 72
perspectives 72
phenomena 72
politely 72
providers 72
rebuild 72
recognise 72
repairing 72
rescued 72
rocket 72
rows 72
scool 72
scuba 72
secured 72
shaping 72
shortly 72
sketch 72
strangely 72
stretching 72
supercritical-water-cooled 72
technically 72
teens 72
thers 72
thrilling 72
tion_@@ 72
tt 72
understands 72
underwear 72
unreasonable 72
updating 72
vers@@ 72
wrestlers 72
writen 72
… 72
48@@ 71
49 71
ANA 71
Admittedly 71
Bas@@ 71
Consumer 71
Dev@@ 71
Discovery 71
Drinking 71
Emma 71
FA@@ 71
Fiji 71
GB 71
Gal@@ 71
Hal@@ 71
Human@@ 71
MIT 71
Nat@@ 71
Nobel 71
Post@@ 71
Sea@@ 71
Southeast 71
Sure 71
Swedish 71
TION 71
Thesedays 71
Were 71
abortion 71
ambitious 71
antique 71
anyways 71
are@@ 71
argues 71
aroma 71
basi@@ 71
bes 71
business@@ 71
cell@@ 71
chili 71
comparable 71
costed 71
democratic 71
deprived 71
diploma 71
dir@@ 71
dolphin 71
evolved 71
exceed 71
exclusive 71
execute 71
expres@@ 71
fav@@ 71
fence 71
fes@@ 71
folding 71
furious 71
gang 71
gor@@ 71
guides 71
holy 71
icon 71
import@@ 71
inate 71
interfere 71
inventor 71
jogged 71
judges 71
kills 71
lacked 71
lighten 71
lized 71
lls 71
lounge 71
mess@@ 71
night@@ 71
objectives 71
organizational 71
outlook 71
overlooked 71
perceived 71
pes 71
pessimistic 71
placing 71
quoted 71
respon@@ 71
rewarding 71
roasted 71
sau@@ 71
sends 71
serv@@ 71
seventh 71
skunk 71
spoil 71
sponge 71
st-@@ 71
stance 71
stricken 71
subsequently 71
sut@@ 71
tary 71
tended 71
thrilled 71
tra 71
transfered 71
transit 71
tray 71
unprecedented 71
unsure 71
varieties 71
versus 71
volcano 71
willingly 71
zo 71
!@@ 70
-0@@ 70
//news.bbc.co.uk/2/hi/@@ 70
/n@@ 70
06 70
20000 70
30pm 70
Acc@@ 70
Andy 70
Avril 70
Betty 70
Clothes 70
Control 70
Data 70
Dor@@ 70
EIKEN 70
Englsh 70
FROM 70
Fra@@ 70
Issue 70
Jewish 70
Li 70
Lunar 70
Miami 70
Natto 70
Near 70
Ok@@ 70
Pur@@ 70
Rel@@ 70
Retirement 70
Stanford 70
T.@@ 70
Throughout 70
URE 70
Words 70
Yakiniku 70
actu@@ 70
advantageous 70
ambiguous 70
arity 70
awhile 70
banking 70
cement 70
cheek 70
choir 70
cky 70
compe@@ 70
consultation 70
controller 70
correc@@ 70
crowed 70
ct 70
devastated 70
diarrhea 70
disability 70
drastic 70
entrepreneur 70
enviroment 70
es.@@ 70
establishing 70
ester 70
extracted 70
fe 70
fic 70
fli@@ 70
fountain 70
gas-cooled 70
grader 70
grammars 70
guit@@ 70
gun@@ 70
hiko 70
hint 70
hooked 70
ign@@ 70
imaging 70
index@@ 70
inherent 70
justify 70
lit@@ 70
majors 70
materi@@ 70
max 70
mem@@ 70
merry 70
mono@@ 70
nan 70
neutron 70
nicely 70
novelist 70
omo@@ 70
ousness 70
pigs 70
prefectures 70
punk 70
queues 70
ram 70
reac@@ 70
releasing 70
remenber 70
safe@@ 70
smarter 70
statues 70
technology@@ 70
tened 70
theoretical 70
there@@ 70
torture 70
trav@@ 70
trousers 70
tuesday 70
urant 70
uro 70
usefull 70
utility 70
vari@@ 70
wonder@@ 70
.c@@ 69
2006@@ 69
360 69
Air@@ 69
Believe 69
CNG 69
CR@@ 69
Crea@@ 69
Daniel 69
Digital 69
Director 69
Egyptian 69
Employment 69
Enlish 69
GR@@ 69
KNOW 69
MIN@@ 69
MacDonald 69
Milan 69
OUR 69
Older 69
Pro 69
Read 69
Resources 69
Rs 69
ST 69
Series 69
Shar@@ 69
Shu@@ 69
TOKYO 69
TT 69
Viet@@ 69
Wars 69
aches 69
anticipate 69
aqu@@ 69
assert 69
bacon 69
basil 69
ble@@ 69
bloody 69
bothers 69
canteen 69
compensate 69
conducting 69
continent 69
disc 69
ects 69
elder@@ 69
ene 69
ero 69
erous 69
esca@@ 69
evaluated 69
exercised 69
extre@@ 69
flavored 69
flavors 69
flows 69
followers 69
fulfil 69
gifted 69
guitarist 69
hiro 69
intentions 69
intonation 69
judgement 69
katsu 69
los 69
mastering 69
mm@@ 69
motto 69
nes 69
ond 69
orial 69
palm 69
paper@@ 69
patiently 69
plz 69
pointing 69
possi@@ 69
postpone 69
pursuing 69
pursuit 69
quitting 69
refrain 69
renewed 69
replacing 69
rewarded 69
ruins 69
salesman 69
singapore@@ 69
slopes 69
sni@@ 69
spar@@ 69
spices 69
ssed 69
stalls 69
subsidized 69
sustained 69
tery 69
thesedays 69
tings 69
tobacco 69
ual 69
univer@@ 69
vy 69
wakes 69
wash@@ 69
who@@ 69
wire 69
wit@@ 69
wom@@ 69
yan 69
.com/article/@@ 68
//gif.inel.gov/roadmap/pdfs/@@ 68
1&_@@ 68
1988 68
1991 68
AP 68
Anybody 68
Beach 68
Blood 68
Brisbane 68
Bun@@ 68
Check 68
Chocolate 68
Conversation 68
DR@@ 68
EU 68
FU@@ 68
Fri@@ 68
Had 68
ION 68
Jun@@ 68
Mas@@ 68
Micro@@ 68
Portugal 68
Prague 68
Results 68
Sky@@ 68
TER 68
Trans@@ 68
Tube 68
USB 68
WOR@@ 68
Yang 68
Yellow 68
adjusted 68
and_@@ 68
ashi 68
ation-@@ 68
brushing 68
buys 68
caps 68
ceremonies 68
chemically 68
chickens 68
cocktail 68
coldest 68
comparatively 68
contra@@ 68
contries 68
correspondence 68
cries 68
crow 68
discounted 68
discrimin@@ 68
dist@@ 68
emerging 68
enced 68
escaping 68
fiance 68
forming 68
fragile 68
frankly 68
fusion 68
gently 68
gross 68
headset 68
igh@@ 68
interpret 68
intimate 68
inventors 68
iring 68
jelly 68
judged 68
kets 68
legislation 68
likelihood 68
litter 68
live@@ 68
logy@@ 68
mac 68
musicals 68
newer 68
outh 68
pling 68
produc@@ 68
rally 68
renting 68
scold 68
ski@@ 68
smartphones 68
someting 68
specialists 68
stray 68
sup@@ 68
surpri@@ 68
tagged 68
tee 68
televisions 68
tempo 68
the_@@ 68
train@@ 68
traits 68
trustworthy 68
twenties 68
underst@@ 68
undesirable 68
ution 68
wil 68
will@@ 68
wool 68
zhou 68
AME 67
Access 67
C.@@ 67
CE 67
CS@@ 67
Case 67
Christie 67
Fla@@ 67
Fun@@ 67
HOW 67
Heroes 67
IG@@ 67
KO@@ 67
Kim@@ 67
Kitty 67
Mail 67
Micheal 67
Ms. 67
NewsAsia 67
Nu@@ 67
PI@@ 67
Problem 67
REALLY 67
Sam 67
Sel@@ 67
Shin 67
Sim@@ 67
Six 67
Taka@@ 67
Tan@@ 67
Tat@@ 67
Ter@@ 67
able@@ 67
acquiring 67
agu@@ 67
amazingly 67
asia 67
bacause 67
beverage 67
blessed 67
blog@@ 67
burdens 67
carelessness 67
cing 67
cles 67
commun@@ 67
complexity 67
containers 67
conveniently 67
couch 67
couldnt 67
cum@@ 67
deficit 67
demanded 67
democracy 67
dim 67
direc@@ 67
discourage 67
diss@@ 67
dissapointed 67
duck 67
eggplant 67
esi@@ 67
excercise 67
ext@@ 67
famine 67
fan@@ 67
fc@@ 67
fif@@ 67
flesh 67
floods 67
fog 67
generator 67
hampers 67
hesitating 67
honesty 67
ically 67
ico 67
initiated 67
inserted 67
intresting 67
kilograms 67
leaked 67
listens 67
manually 67
murderer 67
oes 67
operas 67
ories 67
pee 67
pee@@ 67
performs 67
pools 67
referring 67
rou@@ 67
sar@@ 67
science@@ 67
seasoning 67
silently 67
singapore 67
softly 67
soybeans 67
static 67
stoped 67
strea@@ 67
tattoos 67
terrified 67
thieves 67
ud 67
umbrellas 67
vitamins 67
whale 67
wheelchairs 67
&id 66
1&@@ 66
2weeks 66
98 66
ASAP 66
Accounting 66
Army 66
Call 66
Charlie 66
Chicken 66
Clo@@ 66
Dead 66
Dong 66
EV 66
Em@@ 66
Feeling 66
Gay 66
Hoping 66
IBM 66
Level 66
Movies 66
Muslims 66
Of@@ 66
P.@@ 66
Reuters 66
Save 66
Short 66
Song 66
Toyama 66
Ur@@ 66
William 66
abbreviation 66
applies 66
attendance 66
audition 66
awa 66
balloons 66
biting 66
bold 66
cle@@ 66
clue 66
comedies 66
conditioned 66
congratulations 66
containment 66
declare 66
despair 66
deter 66
distinctive 66
earnings 66
ele 66
emerged 66
enforced 66
es_@@ 66
eta 66
etly 66
executive 66
faithful 66
featured 66
formula 66
forword 66
fresh@@ 66
frien@@ 66
gar 66
gie 66
glu@@ 66
grated 66
grief 66
handled 66
helicopter 66
hn 66
hour@@ 66
ican 66
illustrations 66
implant 66
imply 66
integrate 66
invaded 66
ising 66
justi@@ 66
lean@@ 66
library/@@ 66
liter@@ 66
lowered 66
mail@@ 66
mentality 66
municipal 66
nic@@ 66
nning 66
obj@@ 66
oily 66
olive 66
omi@@ 66
optimi@@ 66
outer 66
ove 66
over-@@ 66
oxide 66
pads 66
pens 66
pled 66
prediction 66
prospect 66
prosperous 66
rainning 66
ras 66
safest 66
scooter 66
scru@@ 66
seventeen 66
shou@@ 66
slices 66
sour@@ 66
stimulus 66
strained 66
strings 66
stroll 66
tak@@ 66
teached 66
telephones 66
ully 66
vest 66
vocalist 66
wildlife 66
yon@@ 66
.gov@@ 65
43@@ 65
Aomori 65
BA 65
Donald 65
E.@@ 65
Eff@@ 65
Eric 65
Europeans 65
Fish 65
Fortun@@ 65
GP 65
Got 65
Hum@@ 65
ITY 65
MON@@ 65
McDonalds 65
Medishield 65
Overview 65
PhD 65
Prison 65
Ram@@ 65
S.@@ 65
Set@@ 65
Sing@@ 65
Together 65
WR@@ 65
Watashi 65
Wi 65
XXX 65
agents 65
alternate 65
ancestor 65
attendants 65
ball@@ 65
benefited 65
blown 65
boats 65
bott@@ 65
bre@@ 65
breed 65
brushed 65
bulbs 65
castles 65
chang 65
chased 65
cious 65
clearer 65
comedians 65
confessed 65
curr@@ 65
curse 65
drag 65
drawings 65
electr@@ 65
essentially 65
eted 65
exceptions 65
experi@@ 65
feel@@ 65
flooded 65
gin 65
grace 65
hats 65
have@@ 65
highlight 65
hypo@@ 65
ignorance 65
improvi@@ 65
inary 65
indirect 65
insur@@ 65
interrupted 65
ized 65
kyoto 65
layout 65
liability 65
maj@@ 65
mango 65
maps 65
menus 65
nov@@ 65
okonomiyaki 65
perceive 65
permitted 65
policemen 65
pp.@@ 65
prefers 65
quest 65
rear 65
recentry 65
renewal 65
ri 65
rounded 65
s. 65
scape 65
seri@@ 65
sers 65
sman 65
soundtrack 65
spice 65
structural 65
sured 65
sures 65
tanks 65
tax@@ 65
tering 65
thorough 65
thougt 65
tiles 65
tram 65
upside 65
usages 65
venue 65
vic@@ 65
what@@ 65
workshops 65
yang 65
'S 64
//nuclear@@ 64
//www.c@@ 64
140 64
1960s 64
1992 64
20s 64
53@@ 64
5km 64
700@@ 64
AY@@ 64
After@@ 64
Ama@@ 64
Award 64
Bureau 64
Conversely 64
Cooking 64
Cross 64
Dinner 64
F1 64
Factors 64
Force 64
GCFR 64
GPA 64
Guess 64
Hill 64
How@@ 64
Jeju 64
Jose 64
Learn 64
Long@@ 64
Macbook 64
Maj@@ 64
Manhattan 64
Mun@@ 64
Proc@@ 64
Publications/@@ 64
Questions 64
Shira@@ 64
Specially 64
Specifically 64
TE 64
TH 64
Tanzania 64
UG@@ 64
Ultimately 64
Waiting 64
accordingly 64
adequately 64
ae 64
aiming 64
alists 64
ander 64
arcade 64
ash 64
bashi 64
befor 64
begin@@ 64
belongings 64
booth 64
buckwheat 64
caus@@ 64
chim@@ 64
circles 64
communicated 64
conv@@ 64
delays 64
diamonds 64
directors 64
dissatisfaction 64
dreadful 64
drin@@ 64
e_@@ 64
econom@@ 64
ester@@ 64
explored 64
exter@@ 64
fabric 64
favor@@ 64
fer 64
fron@@ 64
fts 64
guilt 64
heels 64
ia@@ 64
idle 64
inability 64
inger 64
interrupt 64
kim@@ 64
knock 64
leather 64
legally 64
lem@@ 64
logo 64
mangas 64
manuscript 64
mixing 64
navigation 64
negotiate 64
noticing 64
obtaining 64
oni 64
pedestrians 64
reckon 64
remarks 64
seemingly 64
sharply 64
shiki 64
shir@@ 64
slice 64
smoked 64
sof@@ 64
sor 64
stab@@ 64
stive 64
stry 64
supplement 64
tempor@@ 64
tment 64
toes 64
udi 64
valley 64
w.@@ 64
whales 64
www 64
xes 64
.com/ 63
02 63
2013 63
2052 63
Afghanistan 63
BB@@ 63
BC 63
CL@@ 63
Destiny 63
Feel 63
Film 63
Goodbye 63
Hanoi 63
Imperial 63
Innovations 63
Johnny 63
Kawasaki 63
Lor@@ 63
Lotte 63
Major 63
Mostly 63
NC@@ 63
Rally 63
Robotic 63
SA@@ 63
Scientific 63
Smoking 63
Soci@@ 63
Sweet 63
Talk 63
Traveling 63
Vo@@ 63
aa@@ 63
ace 63
adi@@ 63
aging@@ 63
al_@@ 63
ala 63
angels 63
arrest 63
atic 63
becase 63
bleeding 63
blessing 63
bonding 63
by-@@ 63
centigrade 63
channeled 63
clicked 63
comprehend 63
critici@@ 63
digest 63
eBay 63
earrings 63
eed 63
eller 63
embedded 63
enclosed 63
environment@@ 63
executed 63
expresses 63
foreig@@ 63
fort@@ 63
frightening 63
ghter 63
gul@@ 63
hanged 63
housewives 63
ima 63
immature 63
immense 63
inging 63
inspiring 63
intersted 63
lang@@ 63
ledge 63
lessly 63
lism 63
messed 63
metropolitan 63
mic@@ 63
misunderstandings 63
mosquitoes 63
notebooks 63
ny@@ 63
offended 63
offensive 63
ola 63
ound@@ 63
outfits 63
planner 63
promotes 63
prototypes 63
pupil 63
racial 63
randomly 63
reccom@@ 63
remark 63
repository 63
requiring 63
reveals 63
rey 63
rhyth@@ 63
robotics 63
salsa 63
sausages 63
seoul 63
sle@@ 63
slow@@ 63
sooooo 63
sought 63
soybean 63
stamp 63
stmas 63
stru@@ 63
suburbs 63
suc@@ 63
sul@@ 63
supportive 63
temptation 63
trea@@ 63
ular 63
unk@@ 63
usa 63
void 63
week@@ 63
zaki 63
1,@@ 62
2005@@ 62
57 62
58@@ 62
63 62
79@@ 62
7pm 62
Ag@@ 62
Bat@@ 62
Between 62
Bruce 62
Dan 62
Dictionary 62
Dublin 62
EE@@ 62
Ethical 62
Ev@@ 62
Exchange 62
Georgetown 62
Harajuku 62
IP 62
Ibaraki 62
Introducing 62
Is@@ 62
Lin 62
Local 62
Magic 62
Mainly 62
Matt 62
POR@@ 62
Pan@@ 62
Picture 62
Play 62
Researchers 62
SD 62
Supercritical-Water-Cooled 62
Yak@@ 62
addressing 62
ake 62
allevi@@ 62
alo@@ 62
avocado 62
beauti@@ 62
biased 62
birthrate 62
blackouts 62
blows 62
bol@@ 62
breakthroughs 62
cardboard 62
confronted 62
contamination 62
convincing 62
coping 62
cs@@ 62
depleted 62
derived 62
distribu@@ 62
doi 62
download@@ 62
drummer 62
dump 62
ect@@ 62
eland 62
fuck 62
gers 62
gli@@ 62
gram@@ 62
greeted 62
hampering 62
hav 62
hmm 62
holic 62
homemade 62
illustrates 62
infinite 62
inherit 62
intensity 62
inting 62
iv@@ 62
judgment 62
jungle 62
kilometres 62
kisses 62
l/@@ 62
life-@@ 62
listen@@ 62
loop 62
mailing 62
membership 62
milli@@ 62
mly 62
mma@@ 62
nation@@ 62
neighbours 62
nouns 62
oku 62
organi@@ 62
ot@@ 62
persist 62
poet 62
power/@@ 62
prot@@ 62
protagonist 62
rabbits 62
ramps 62
reas@@ 62
reconsider 62
representatives 62
restore 62
restored 62
rewards 62
rish 62
scripts 62
seminars 62
servers 62
shave 62
sig@@ 62
smallest 62
souls 62
speech@@ 62
stop@@ 62
straw 62
systematic 62
taxis 62
thir@@ 62
tougher 62
towers 62
ugh@@ 62
uncertainty 62
uncountable 62
unwanted 62
vaccination 62
view/@@ 62
vings 62
30000 61
58 61
Authority 61
Bang 61
Bioethics 61
Boo@@ 61
Cathedral 61
D.@@ 61
Federal 61
Fil@@ 61
Gam@@ 61
Grade 61
Gradually 61
Hatoyama 61
Hom@@ 61
Industrial 61
JR 61
Jenny 61
Kyusyu 61
Lane 61
Lanka 61
Lift 61
Listen 61
Mia 61
Mis@@ 61
Off@@ 61
Pakistan 61
Peru 61
Steven 61
Survey 61
Susan 61
TEN@@ 61
Terr@@ 61
Traffic 61
Van 61
WHAT 61
West@@ 61
YA 61
ago@@ 61
airports 61
alumni 61
appointments 61
apt 61
aroud 61
backstage 61
blond 61
bonds 61
bow@@ 61
bra 61
british 61
bucket 61
buyer 61
candle 61
casually 61
centimeters 61
cher@@ 61
chewing 61
clas@@ 61
co-@@ 61
collar 61
confront 61
crystal 61
dai 61
demo@@ 61
depart 61
diffusion 61
dos 61
eh 61
electromagnetic 61
ested 61
evacuation 61
expanded 61
feasibility 61
finger@@ 61
fol@@ 61
foun@@ 61
genetics 61
gov@@ 61
harmonious 61
harvested 61
helmet 61
holes 61
horizon 61
impli@@ 61
ker@@ 61
kon 61
langage 61
leg@@ 61
lowering 61
manufacturer 61
maple 61
mol@@ 61
ness@@ 61
newcomer 61
news.com/@@ 61
ped@@ 61
pissed 61
progra@@ 61
progression 61
radio@@ 61
receives 61
respondents 61
rested 61
screen@@ 61
sentimental 61
slave 61
slope 61
slowing 61
snowman 61
sory 61
subtle 61
sufficiently 61
supplied 61
syndrome 61
tam@@ 61
tants 61
targeted 61
teenth 61
tha@@ 61
tial 61
tized 61
uncommon 61
unfortun@@ 61
ured 61
virtually 61
wel@@ 61
yukata 61
10km 60
89 60
AVATAR 60
Annual 60
Au 60
Buongiorno 60
Cas@@ 60
Cop@@ 60
Cur@@ 60
Dan@@ 60
Discrimination 60
Dom@@ 60
Driving 60
EL 60
Elizabeth 60
Eng 60
Face 60
Falls 60
Gas@@ 60
Hiro@@ 60
Kids 60
Laos 60
MS@@ 60
Meet 60
Mike 60
Pol@@ 60
RA@@ 60
Rom@@ 60
Shinagawa 60
Tech@@ 60
Tofu 60
Tracking 60
Wijaya 60
Wood 60
Yama@@ 60
adress 60
amenities 60
atmospheric 60
authentic 60
b/@@ 60
backyard 60
banning 60
behaviours 60
betrayed 60
bio 60
blues 60
brass 60
calculation 60
candies 60
cart 60
casting 60
chopped 60
clover 60
coats 60
compla@@ 60
coolants 60
copied 60
crude 60
cucumbers 60
cular 60
curtain 60
d/@@ 60
debated 60
dialects 60
dieting 60
dificult 60
dio 60
drowsy 60
ecially 60
ecology 60
elev@@ 60
elly 60
enge 60
enting 60
event@@ 60
experim@@ 60
ffy 60
fourteen 60
fox 60
freak 60
gesture 60
gravity 60
heights 60
hr 60
ichi 60
inci@@ 60
index.php 60
iner 60
itted 60
izing 60
karate 60
ld@@ 60
meditation 60
mint 60
modification 60
mornig 60
news.@@ 60
o-@@ 60
occupy 60
ordin@@ 60
outdated 60
portions 60
ppy 60
present@@ 60
privilege 60
provider 60
psy@@ 60
qua@@ 60
que@@ 60
rack 60
recreational 60
respects 60
rowing 60
s.htm 60
sausage 60
sawa 60
scarce 60
schoo@@ 60
selves 60
serendipitously 60
squeeze 60
stamina 60
stare 60
structured 60
subsequent 60
taked 60
tel 60
tempura 60
terrific 60
thumb 60
transform 60
transparent 60
trials 60
tutors 60
vendor 60
vens 60
xi 60
yahoo 60
yakiniku 60
yl 60
-up 59
.org.sg/@@ 59
1945 59
2hours 59
78@@ 59
ATA 59
Aff@@ 59
Age@@ 59
Asians 59
Buying 59
Christians 59
Citizens 59
Del@@ 59
Doomsday 59
Either 59
Exactly 59
FIN@@ 59
Fuk@@ 59
Ghost 59
Hangzhou 59
Hawaiian 59
IAEA 59
Immediately 59
Introduce 59
Kabuki 59
Kur@@ 59
Made 59
Medifund 59
NI@@ 59
Neither 59
Norwegian 59
Off 59
Ol@@ 59
PA@@ 59
Patrick 59
Plea@@ 59
Previously 59
Pusan 59
Resource 59
Roger 59
Sak@@ 59
Same 59
Singing 59
Stephen 59
Surgery 59
Tony 59
Top@@ 59
Tourist 59
True 59
Universities 59
Volume 59
acquisition 59
agawa 59
agenda 59
ame 59
amp@@ 59
applicable 59
appriciate 59
armed 59
assa@@ 59
automated 59
awa@@ 59
bia 59
billions 59
bloomed 59
body@@ 59
cheaply 59
coated 59
colleage 59
consulted 59
continual 59
copying 59
decay 59
disclosed 59
dish@@ 59
dition 59
drill 59
eachother 59
embrace 59
envied 59
eon 59
erry 59
exposing 59
flip 59
food@@ 59
gle 59
globa@@ 59
govern@@ 59
gram 59
hackers 59
hazards 59
herbs 59
highways 59
immi@@ 59
incl@@ 59
indoors 59
ior 59
iz@@ 59
lay@@ 59
leftover 59
long@@ 59
lunchtime 59
mandarin 59
mashita 59
mit 59
myth 59
negotiation 59
neutrons 59
organisations 59
origin@@ 59
ough@@ 59
oyster 59
ozone 59
parcel 59
patents 59
perc@@ 59
petals 59
pots 59
practised 59
print@@ 59
quarreled 59
radical 59
refriger@@ 59
regul@@ 59
relates 59
respectful 59
rie 59
risen 59
road@@ 59
ruling 59
segment 59
shanghai 59
soo@@ 59
spi@@ 59
studi@@ 59
subjected 59
suburb 59
t.@@ 59
temper@@ 59
texture 59
thing@@ 59
thinner 59
thread 59
tow 59
twisted 59
uchi 59
ught 59
unusually 59
useing 59
wardrobe 59
warmed 59
yea@@ 59
youths 59
zoos 59
110 58
1950 58
82 58
96 58
Already 58
Arab 58
Av@@ 58
BI@@ 58
BR@@ 58
Bar 58
Brian 58
Buy 58
Canadians 58
Celine 58
Co 58
Demography 58
Domestic 58
ERS 58
Edward 58
FCE 58
Field 58
Fran@@ 58
Hemingway 58
Increasing 58
Initially 58
Japanse 58
Kit@@ 58
Lesson 58
MORE 58
Need 58
Past 58
Pirates 58
Preparing 58
Ren@@ 58
Risk 58
Scott 58
Services 58
Surfing 58
THERE 58
Tel@@ 58
Tommorow 58
Umm 58
Various 58
accident@@ 58
adore 58
aga 58
allergies 58
anchor 58
assi@@ 58
ational 58
atsu 58
atten@@ 58
aviation 58
bang 58
bed@@ 58
bees 58
birthdays 58
cals 58
camp@@ 58
cancer@@ 58
canned 58
capsule 58
chiken 58
christian 58
cliff 58
clumsy 58
column 58
compatible 58
controversies 58
convinient 58
coupled 58
coupon 58
crow@@ 58
crown 58
daily@@ 58
dan@@ 58
deff@@ 58
demo 58
destinations 58
destructive 58
diligently 58
disposed 58
disturbing 58
drawer 58
draws 58
duction 58
eligible 58
elt 58
enters 58
federal 58
files/@@ 58
filter 58
futsal 58
hai 58
help@@ 58
hypothesis 58
ices 58
ide@@ 58
ider 58
incorporated 58
iro 58
ised 58
issu@@ 58
jan@@ 58
laughs 58
lifelong 58
lifting 58
lik@@ 58
m/@@ 58
machinery 58
mans 58
matched 58
moring 58
motorcycles 58
nal@@ 58
nant 58
nee@@ 58
nese 58
ordering 58
paints 58
parlor 58
paths 58
peel 58
performer 58
perseverance 58
pitcher 58
plea@@ 58
pollutants 58
pong 58
posters 58
producers 58
proficient 58
quotes 58
rar@@ 58
refined 58
resorts 58
resour@@ 58
robbed 58
rup@@ 58
s/ 58
sales@@ 58
shaved 58
sively 58
slippers 58
slippery 58
sp 58
step@@ 58
stepping 58
subscribe 58
symbols 58
toe 58
uru 58
voting 58
weeds 58
wind@@ 58
wolf 58
woo@@ 58
-- 57
10.@@ 57
10pm 57
9.@@ 57
AIDS 57
Affairs 57
Amy 57
Andre@@ 57
Asada 57
BIG 57
Beauty 57
Below 57
Bio@@ 57
Calgary 57
Chapter 57
Cinderella 57
Colombia 57
Cultural 57
Einstein 57
Fuel 57
Goo@@ 57
Gor@@ 57
HAS 57
Hyogo 57
IV@@ 57
Interestingly 57
Kei 57
Mad@@ 57
Maths 57
Mondays 57
Naga@@ 57
Num@@ 57
Oil 57
Pow@@ 57
Private 57
Robot 57
Siberia 57
Side 57
Skunk 57
Store 57
W.@@ 57
We@@ 57
Work@@ 57
Yest@@ 57
Yoshi@@ 57
Yuki 57
academ@@ 57
ached 57
altitude 57
altogether 57
ard@@ 57
astonishing 57
auto 57
beg 57
bin@@ 57
blah 57
blogger 57
bouquet 57
breakdown 57
bullied 57
bully 57
cab@@ 57
casualties 57
common@@ 57
condominium 57
crawl 57
cycles 57
discharged 57
discomfort 57
dor 57
doughnuts 57
downs 57
dubbed 57
ecosystem 57
eighty 57
eti@@ 57
farther 57
fitting 57
freeze 57
functionality 57
gaming 57
gyoza 57
hugging 57
illuminated 57
illustrated 57
immoral 57
iners 57
innovate 57
internationally 57
irritating 57
juicy 57
lamps 57
led@@ 57
livelihood 57
manag@@ 57
manipu@@ 57
mayonnaise 57
mount 57
nia 57
ological 57
ownership 57
packs 57
poisoning 57
poll@@ 57
postgraduate 57
potter 57
privac@@ 57
prof@@ 57
reflection 57
rest@@ 57
sei 57
serendipity 57
shortest 57
sighted 57
simu@@ 57
sneezing 57
spark@@ 57
ston 57
stubborn 57
swollen 57
tactics 57
tenth 57
trailer 57
transformation 57
transpor@@ 57
typed 57
uk 57
umb@@ 57
way@@ 57
whereabouts 57
whiskey 57
wines 57
(@@ 56
110@@ 56
1970s 56
1989 56
2days 56
600@@ 56
61 56
ATM 56
Activities 56
Ai@@ 56
Arti@@ 56
Asahi 56
Base 56
Billy 56
Boat 56
Camera 56
Cebu 56
Ear@@ 56
Fantasy 56
Gray 56
Gross 56
Hallo 56
Himeji 56
Hungarian 56
Jen@@ 56
Kai@@ 56
LDP 56
List 56
MLB 56
MV 56
Mont@@ 56
NA 56
Non 56
Progress 56
RP@@ 56
Rest@@ 56
Shenzhen 56
Sus@@ 56
TS@@ 56
TU@@ 56
Twenty 56
Wakayama 56
abe 56
aboard 56
abundance 56
aca@@ 56
accordance 56
actinides 56
adviser 56
agrees 56
anes@@ 56
aro 56
bon 56
busiest 56
cab 56
canc@@ 56
capitali@@ 56
cautious 56
chooses 56
civilians 56
cker 56
collision 56
committing 56
companion 56
complications 56
conso@@ 56
crafts 56
cures 56
curing 56
dealer 56
debut 56
development/policies 56
diner 56
ef 56
elaborate 56
etc. 56
eving 56
excer@@ 56
fatty 56
filed 56
frogs 56
fuel@@ 56
glue 56
good@@ 56
graceful 56
happenings 56
hospitality 56
hr@@ 56
iPad2 56
impulse 56
initi@@ 56
insp@@ 56
interactive 56
investigating 56
io 56
jackets 56
kidney 56
kissing 56
kyu 56
lining 56
mar 56
measurement 56
memo 56
merchandise 56
morally 56
neglecting 56
norm 56
offs 56
one-@@ 56
online@@ 56
ook 56
origami 56
outcomes 56
outfit 56
outing 56
pandas 56
path@@ 56
pertaining 56
pine 56
pineapple 56
poo@@ 56
prepares 56
protects 56
pumped 56
rable 56
releases/@@ 56
resul@@ 56
ron@@ 56
rumors 56
sci 56
sco 56
secondhand 56
shogi 56
sia 56
smo@@ 56
spee@@ 56
strategic 56
suff@@ 56
sunburn 56
syrup 56
taro 56
tism 56
tom 56
transportations 56
transported 56
traveler 56
try@@ 56
tsu 56
ute 56
veg@@ 56
vendors 56
vey 56
vious 56
weights 56
wet@@ 56
wiser 56
workload 56
wright 56
xxx 56
yle 56
,2007 55
-year 55
00PM 55
198@@ 55
21th 55
550 55
86@@ 55
9am 55
AGE 55
AKB48 55
About@@ 55
BY 55
Child 55
Climbing 55
Columbia 55
Contin@@ 55
ELY 55
Essay 55
Grandma 55
Health@@ 55
Heat 55
KS 55
Kaz@@ 55
LTA 55
Malta 55
Marine 55
Metal 55
Michel 55
Min 55
Miso 55
Motor 55
Moving 55
Mum 55
Over@@ 55
PAR@@ 55
Pac@@ 55
RES@@ 55
Revolution 55
SAT 55
Secret 55
Sta@@ 55
TVs 55
Tea 55
Under@@ 55
Vacation 55
WWII 55
Walk 55
Welfare 55
abused 55
accused 55
alco@@ 55
ance@@ 55
appealed 55
arly 55
arm@@ 55
awfully 55
basement 55
calender 55
calmed 55
casts 55
ceramic 55
child@@ 55
cies 55
cil@@ 55
clinics 55
communi@@ 55
confidently 55
consistently 55
creepy 55
delivering 55
design@@ 55
dye 55
eal@@ 55
electri@@ 55
eno@@ 55
ett 55
evacuated 55
executives 55
exploit 55
feast 55
flooding 55
frends 55
gan 55
gat@@ 55
gates 55
geek 55
had@@ 55
hardships 55
histor@@ 55
inspected 55
insu@@ 55
interpersonal 55
irregular 55
juku 55
jum@@ 55
kidnapped 55
kilogram 55
kyo 55
leaved 55
lizing 55
long-@@ 55
loy@@ 55
masu 55
metres 55
mill@@ 55
needle 55
observing 55
onwards 55
oppo@@ 55
outweighs 55
phili@@ 55
pies 55
planets 55
pollu@@ 55
popul@@ 55
postcards 55
prepar@@ 55
preschool 55
progresses 55
raid 55
recognised 55
recruitment 55
regrettable 55
rement 55
renowned 55
responsi@@ 55
retraining 55
riverside 55
room@@ 55
seal 55
sesame 55
shcool 55
shorten 55
sick@@ 55
sleeve 55
sleeves 55
slump 55
spinning 55
sprouts 55
spy 55
sticking 55
stimulates 55
stunned 55
suit@@ 55
tackling 55
tered 55
themself 55
tness 55
tos 55
touches 55
transmit 55
trauma 55
ushima 55
usions 55
vibration 55
waved 55
waving 55
well@@ 55
wrestler 55
wrestling 55
wro@@ 55
yearly 55
yest@@ 55
é 55
.j@@ 54
//www.nature.com/scitable/topicpage/Ethics-of-Genetic-Testing-Medical-Insurance-and-651 54
//www@@ 54
1.html 54
11/@@ 54
12.@@ 54
1200 54
180 54
2006/@@ 54
293-303 54
2F@@ 54
64@@ 54
7am 54
86 54
ANG@@ 54
Actu@@ 54
Althought 54
Animation 54
Caribbean 54
Dickens 54
Eco 54
Ed 54
Emperor 54
FR@@ 54
Finaly 54
Fireworks 54
GI@@ 54
Genetic@@ 54
IE 54
ITE 54
Jordan 54
Joy 54
Kag@@ 54
Kimchi 54
Na 54
Nadeshiko 54
Ofcourse 54
PM@@ 54
Pic@@ 54
Present 54
Retrived 54
Ryoma 54
Staying 54
Sunshine 54
TEPCO 54
Ukrainian 54
Wea@@ 54
Woman 54
accountant 54
ack@@ 54
assembly 54
awoke 54
bark 54
bath@@ 54
beard 54
beau@@ 54
beg@@ 54
blin@@ 54
burns 54
cam 54
caution 54
cen@@ 54
chy 54
coefficient 54
colloquial 54
come@@ 54
conci@@ 54
continu@@ 54
cought 54
crap 54
cs/@@ 54
detail@@ 54
domitory 54
drunken 54
embassy 54
enhances 54
expired 54
favour@@ 54
favourable 54
fet@@ 54
fon@@ 54
framework 54
func@@ 54
gu 54
hamster 54
ignorant 54
illusion 54
in_@@ 54
indu@@ 54
informative 54
insignificant 54
involvement 54
ists 54
kai@@ 54
kite 54
koto 54
lanes 54
ligent 54
listener 54
loaded 54
mac@@ 54
ministers 54
mobil@@ 54
nag@@ 54
nings 54
of_@@ 54
ople 54
overwork 54
passages 54
pel@@ 54
peple 54
physician 54
prescribed 54
puri@@ 54
question@@ 54
ren 54
reporting 54
requ@@ 54
reservations 54
resignation 54
revive 54
rides 54
scholarships 54
sequel 54
sho 54
shortcomings 54
simulation 54
sincer@@ 54
softball 54
soo 54
strikes 54
stuffy 54
stylist 54
summar@@ 54
tain@@ 54
teach@@ 54
teller 54
tex@@ 54
then@@ 54
thor@@ 54
timely 54
times.com/@@ 54
tomb 54
toothache 54
una 54
urs 54
vicious 54
view@@ 54
wang 54
weak@@ 54
zo@@ 54
//www.a@@ 53
31th 53
6pm 53
Accordingly 53
Aged 53
Analy@@ 53
Angel 53
BS 53
Bhutan 53
CHANG@@ 53
Fu 53
Gates 53
Gene 53
HDD 53
HK 53
HP 53
Heavy 53
Inst@@ 53
Islands 53
Knowledge 53
Masters 53
Mickey 53
Mol@@ 53
NEVER 53
Nikko 53
Panda 53
Patients 53
Ph@@ 53
Reason 53
Rober@@ 53
Saga 53
Saving 53
Seriously 53
Shimane 53
Shop 53
Sonic 53
TA@@ 53
THEATRE 53
TY 53
Touch 53
UK@@ 53
Version 53
Wedding 53
Xiaonei.com 53
abo@@ 53
addict 53
altered 53
aly@@ 53
angles 53
astronaut 53
aya 53
bearing 53
bedrooms 53
beverages 53
billiards 53
boast 53
bridges 53
casino 53
celeb@@ 53
cite 53
coldness 53
condition@@ 53
consisting 53
constraint 53
constructive 53
converting 53
corners 53
countdown 53
creator 53
cry@@ 53
cube 53
dable 53
daylight 53
decorating 53
deprive 53
deteriorating 53
differs 53
dismissed 53
distracted 53
districts 53
durable 53
edged 53
elite 53
elo@@ 53
emergencies 53
encing 53
engagement 53
envi@@ 53
eption 53
expressway 53
fade 53
fainted 53
fairies 53
fis@@ 53
fo 53
frames 53
friendliness 53
gan@@ 53
gated 53
genres 53
gymnastics 53
heal@@ 53
iga 53
ild 53
iles 53
inating 53
influ@@ 53
innovation-development 53
instinct 53
integrity 53
invade 53
ironic 53
isa 53
kilometer 53
kindergarden 53
lamb 53
latte 53
lavender 53
leaflets 53
loans 53
lou@@ 53
main@@ 53
market@@ 53
mastered 53
mechanisms 53
memori@@ 53
minim@@ 53
motor@@ 53
mum@@ 53
oon 53
orn@@ 53
ov 53
overlook 53
ox@@ 53
p-@@ 53
perf@@ 53
programing 53
publicity 53
pulling 53
reap 53
recruiting 53
referee 53
reminder 53
representing 53
revolutionary 53
risk@@ 53
sensi@@ 53
servic@@ 53
shade 53
shark 53
shr@@ 53
siness 53
smu@@ 53
ssy 53
stimulating 53
stitution 53
straigh@@ 53
succ@@ 53
summit 53
surgeries 53
tious 53
tolerate 53
tops 53
trendy 53
triple 53
turtles 53
tz 53
ug@@ 53
undergone 53
usion 53
verbal 53
veri@@ 53
vitality 53
wac@@ 53
width 53
yl@@ 53
ysi@@ 53
yuki 53
.com/articles/@@ 52
1981 52
2:@@ 52
429@@ 52
84 52
850 52
Alan 52
Area 52
BROOK 52
Bil@@ 52
Bl@@ 52
Bonus 52
Budapest 52
Cairns 52
Chiang 52
Climate 52
Court 52
Dir@@ 52
Dogs 52
Don 52
Economy 52
Entrance 52
Entry 52
FO@@ 52
FUL 52
Forsberg 52
Gas-Cooled 52
Genome 52
Gifu 52
Giving 52
Gri@@ 52
Higher 52
Hit@@ 52
Huang 52
Intro@@ 52
Jennifer 52
Jin 52
LAN 52
LIN@@ 52
Lantern 52
Left 52
Less 52
Mathematics 52
Nearly 52
Nokia 52
Oasis 52
Ohana 52
Oops 52
Oregon 52
Pas@@ 52
Passive 52
Primary 52
Prize 52
Proficiency 52
Prot@@ 52
Ross 52
Run 52
SM@@ 52
SW@@ 52
Shiga 52
Strong 52
Subsequently 52
TAK@@ 52
Taro 52
Tigers 52
Title 52
Totoro 52
Transportation 52
Tv 52
Visiting 52
Watch 52
Yor@@ 52
acks 52
add@@ 52
adv@@ 52
aftershock 52
alley 52
analy@@ 52
annoys 52
appearing 52
assisted 52
barrier-free 52
begging 52
bom@@ 52
bookshop 52
boot 52
bricks 52
btw 52
cane 52
capit@@ 52
cathedral 52
chal@@ 52
chen 52
chick 52
coinc@@ 52
collaboration 52
connects 52
courts 52
cracked 52
curtains 52
decisive 52
depended 52
deteriorate 52
determining 52
dispo@@ 52
dispose 52
dragged 52
drawback 52
dynasty 52
eco-car 52
emen 52
endurance 52
ener 52
etely 52
exi@@ 52
fee@@ 52
fish@@ 52
functioning 52
gene@@ 52
glow 52
hatred 52
homeroom 52
horizons 52
idea@@ 52
imagining 52
implants 52
intake 52
inter 52
iso@@ 52
itali@@ 52
judging 52
kingdom 52
koshi 52
lace 52
laz@@ 52
leap 52
manufactured 52
mean@@ 52
mechanics 52
ment-@@ 52
miniature 52
mortality 52
mysteries 52
neg@@ 52
negligence 52
nes@@ 52
nuance 52
opin@@ 52
ops 52
otaku 52
outs 52
parson 52
peaches 52
pencils 52
penguin 52
peppers 52
pes@@ 52
predictable 52
pressuri@@ 52
priceless 52
pronoun@@ 52
proteins 52
purely 52
quotation 52
racy 52
rd 52
recei@@ 52
regretful 52
rfid_@@ 52
s-and-@@ 52
screens 52
sensors 52
servants 52
shin 52
shortened 52
sies 52
snea@@ 52
solu@@ 52
spacious 52
speciali@@ 52
striking 52
superiors 52
swea@@ 52
sympathize 52
tage 52
technologi@@ 52
tion-@@ 52
trainee 52
uded 52
unacceptable 52
und 52
urine 52
uta 52
ux 52
veranda 52
vor@@ 52
wax 52
AFTER 51
AMA 51
AWA 51
Along 51
Analysis 51
Applied 51
Arabian 51
B.@@ 51
BF 51
Beca@@ 51
Britney 51
Brother 51
Busy 51
Century 51
Conven@@ 51
Engilsh 51
Ever@@ 51
FIRST 51
Forest 51
Gla@@ 51
Goya 51
Hana 51
Indians 51
Iron 51
Izu 51
Kanellos 51
Koshien 51
LL@@ 51
Lam@@ 51
Mur@@ 51
Newater 51
Niagara 51
Nishi@@ 51
Number 51
Page 51
Planning 51
Professional 51
Quest 51
Quite 51
Rapid 51
Revisited 51
Sec@@ 51
Shu 51
Sichuan 51
Sodium 51
South@@ 51
Step@@ 51
Symphony 51
TOR@@ 51
Tax 51
Thought 51
Tit@@ 51
Univer@@ 51
Upon 51
Very-@@ 51
WAY 51
Workers 51
a.@@ 51
absurd 51
achi@@ 51
acknowledged 51
advises 51
alter 51
anim@@ 51
antibiotic 51
appear@@ 51
aria 51
ast 51
august 51
bic@@ 51
bir@@ 51
bites 51
black@@ 51
bookkeeping 51
booming 51
borne 51
boundaries 51
burgers 51
captions 51
caster 51
chard 51
coaches 51
commodities 51
completing 51
cottage 51
counselor 51
countable 51
crop 51
dest 51
devi@@ 51
diagno@@ 51
discri@@ 51
dislikes 51
dom 51
dvd 51
earnest 51
eases 51
editing 51
eful 51
eigh@@ 51
enforce 51
enic 51
entary 51
extending 51
fas@@ 51
firend 51
galleries 51
ggling 51
hampered 51
handi@@ 51
harbor 51
havent 51
hips 51
hob@@ 51
homeland 51
horn 51
humour 51
icy 51
imag@@ 51
imi 51
immersed 51
impl@@ 51
impress 51
improper 51
index 51
infant 51
infections 51
interactions 51
jack 51
kou@@ 51
last@@ 51
logists 51
mend 51
multi-@@ 51
neatly 51
nick@@ 51
ninety 51
nodded 51
nowdays 51
oms 51
ord 51
overly 51
par 51
past@@ 51
performers 51
pig@@ 51
population@@ 51
prestigious 51
pup@@ 51
recognizing 51
reconstruction 51
regain 51
regreted 51
regulated 51
replying 51
ressed 51
rics 51
riot 51
rities 51
saxophone 51
scan 51
scenic 51
search@@ 51
seated 51
seventy 51
shells 51
shoping 51
signature 51
silk 51
skinny 51
soaring 51
specialize 51
sporting 51
stall 51
suspense 51
swallow 51
symphony 51
tagging 51
texted 51
tible 51
til@@ 51
ump 51
ung@@ 51
ushi@@ 51
vampires 51
van@@ 51
ve-@@ 51
vegitables 51
vert 51
video@@ 51
viewer 51
viol@@ 51
webcam 51
weighed 51
wirte 51
.edu/ 50
//inlportal.inl.gov/portal/server.pt 50
//www.rfid@@ 50
/r@@ 50
11pm 50
13/@@ 50
1hour 50
30s 50
3years 50
514&objID 50
59 50
68 50
71 50
79 50
83 50
88@@ 50
Afternoon 50
Amer@@ 50
Arsenal 50
Assi@@ 50
Bernhard 50
Beyond 50
Brad 50
Carbon 50
Carri@@ 50
Cáceres 50
DIY 50
District 50
Dubai 50
Electricity 50
Elena 50
Enoshima 50
Fine 50
GINA 50
Grant 50
Gyoza 50
Happ@@ 50
Honey 50
Honolulu 50
Joh@@ 50
Jump 50
KH@@ 50
Lead 50
Lewan 50
Macdonald 50
Main@@ 50
Mario 50
Mass 50
Miyajima 50
OC 50
PRE@@ 50
Play@@ 50
Point 50
Pom@@ 50
Rem@@ 50
Sales 50
Scottish 50
Shall 50
Sodium-cooled 50
Sophie 50
Source 50
Southern 50
Spo@@ 50
TECHNOLOGY 50
THINK 50
TUR@@ 50
TV@@ 50
Tai 50
World@@ 50
YU 50
YUK@@ 50
Zh@@ 50
adapting 50
aer@@ 50
affiliated 50
breach 50
broad@@ 50
brutal 50
buddy 50
bumped 50
calculated 50
call@@ 50
caramel 50
catches 50
charac@@ 50
chew 50
chop@@ 50
collegues 50
compo@@ 50
compu@@ 50
contracting 50
converse 50
cooperative 50
cord 50
cos 50
dar 50
determines 50
diamond 50
documents/@@ 50
doll@@ 50
donations 50
door@@ 50
doubled 50
eces 50
enought 50
eo@@ 50
equality 50
erial 50
espresso 50
establishment 50
eved 50
explosions 50
faint 50
famil@@ 50
fatter 50
faulty 50
favorit 50
fellows 50
frequ@@ 50
gospel 50
gradu@@ 50
graph@@ 50
gt 50
hama 50
headaches 50
helium-cooled 50
ht@@ 50
ides 50
ig 50
ila 50
imo 50
impe@@ 50
impro@@ 50
info/@@ 50
innov@@ 50
investigated 50
katakana 50
kidnapping 50
kitchens 50
kura 50
lastly 50
leaned 50
learing 50
lettuce 50
machi 50
machinists 50
mathematical 50
may@@ 50
medic@@ 50
medications 50
mee@@ 50
mili@@ 50
moive 50
nano@@ 50
obe@@ 50
oid 50
olympic 50
ounding 50
oversleep 50
paperback 50
penguins 50
persuaded 50
phone@@ 50
pipes 50
pref@@ 50
prise 50
productions 50
prolonged 50
pts 50
racket 50
reactivity 50
rer@@ 50
rs 50
sacrificed 50
sama 50
sandals 50
scissors 50
sco@@ 50
se/@@ 50
season@@ 50
sensitivity 50
sever@@ 50
shan 50
shortages 50
shu 50
shutdown 50
skates 50
sno@@ 50
som 50
specified 50
spon@@ 50
sponsor 50
spray 50
ssing 50
stam@@ 50
storing 50
suppl@@ 50
surveys 50
taboo 50
technician 50
technology/@@ 50
thed 50
this@@ 50
thoughtful 50
tolerant 50
transition 50
transports 50
trap 50
trys 50
tten 50
tton 50
tubes 50
ultra 50
unrealistic 50
verted 50
vividly 50
whispered 50
winners 50
yeas 50
zushi 50
é@@ 50
-term 49
.9 49
.cn/@@ 49
23th 49
42@@ 49
9pm 49
Accessibility 49
Antonio 49
Bath 49
By@@ 49
Card 49
Clean 49
Coke 49
DE 49
Develop@@ 49
Diana 49
Down 49
Dreams 49
Email 49
Fore@@ 49
Guide 49
HA 49
Hawk-eye 49
Him 49
Holy 49
Hop@@ 49
I'M 49
IE@@ 49
Iam 49
Increa@@ 49
Ivan 49
Jac@@ 49
LAST 49
LED 49
Lan@@ 49
Lat@@ 49
Liverpool 49
MAN 49
Marketing 49
Med@@ 49
Montreal 49
NOW 49
Nana 49
Nar@@ 49
Nippon 49
ONLY 49
OS@@ 49
Osechi 49
PV 49
Phil@@ 49
Philadelphia 49
RED 49
Ramadan 49
Reli@@ 49
Sherlock 49
Sig@@ 49
Stadium 49
Stat@@ 49
Sud@@ 49
Suppose 49
TRY 49
Tanabata 49
Technological 49
Ted 49
Terminator 49
Trying 49
Type 49
VS 49
Watson 49
Zero 49
accepts 49
accomplishment 49
aggrav@@ 49
android 49
aning 49
attachment 49
avi@@ 49
backwards 49
bady 49
bag@@ 49
batting 49
beggining 49
bid 49
bud 49
camer@@ 49
coding 49
coloured 49
conditional 49
contin@@ 49
cuisines 49
curb 49
damaging 49
denti@@ 49
depicts 49
diffcult 49
dire 49
disa@@ 49
display@@ 49
dock 49
dominated 49
dough 49
dual 49
elbow 49
english@@ 49
enjoy@@ 49
entially 49
equip 49
eses 49
esta 49
examiner 49
filming 49
firends 49
foot@@ 49
frineds 49
grams 49
gth 49
handwriting 49
his/her 49
holders 49
hoo 49
hopeless 49
hurricane 49
idently 49
imports 49
ince 49
inheriting 49
innova@@ 49
insert 49
investigations 49
iton 49
kimonos 49
knowledges 49
lifted 49
lisation 49
liters 49
matching 49
minites 49
misses 49
mt 49
murders 49
nano 49
national@@ 49
nel 49
odi@@ 49
offset 49
oper@@ 49
penet@@ 49
perm 49
php 49
phrasal 49
poles 49
polished 49
pple 49
pragmatic 49
preview 49
program@@ 49
prohibit 49
protest 49
punch 49
receipt 49
recreation 49
remeber 49
remo@@ 49
repairs 49
replies 49
reporters 49
research@@ 49
respecting 49
rfid@@ 49
rian 49
rom 49
secu@@ 49
shino 49
shrimps 49
sional 49
slogan 49
softwares 49
spinach 49
stating 49
strokes 49
supervision 49
surge 49
surger@@ 49
surprises 49
swim@@ 49
t. 49
terday 49
terri@@ 49
tertiary 49
thogh 49
tionally 49
toothbrush 49
transmission 49
uploading 49
valu@@ 49
vanilla 49
vicinity 49
vir@@ 49
vo 49
well-known 49
worms 49
worthless 49
yelling 49
.Retrieved 48
//www.b@@ 48
/index@@ 48
150@@ 48
2004@@ 48
20090@@ 48
20Engineering- 48
20Engineering.pdf 48
50000 48
95@@ 48
AB 48
Apr 48
Aside 48
Att@@ 48
Ay@@ 48
BEST 48
Bus 48
CET6 48
COR@@ 48
Cameron 48
Championship 48
Christ@@ 48
Cli@@ 48
Detective 48
Devil 48
Diet 48
Dr@@ 48
Dun@@ 48
Employers 48
Everywhere 48
FBI 48
Funds 48
GET 48
H.@@ 48
HD 48
Hunter 48
Islam 48
Istanbul 48
Joey 48
Juan 48
Kanazawa 48
Kri@@ 48
L.@@ 48
Leonardo 48
MT 48
Memorial 48
Nak@@ 48
OP@@ 48
Owing 48
Parkinson 48
Photo 48
Plan@@ 48
Publi@@ 48
Publishing 48
R.@@ 48
RFID@@ 48
Rev@@ 48
Riding 48
Rights 48
Rio 48
Staff 48
Than 48
Transformers 48
U.S.A 48
UFO 48
UT@@ 48
Unit 48
VI 48
Virtual 48
WW@@ 48
XX 48
aba 48
ac 48
advisor 48
aku@@ 48
ament 48
apologise 48
associates 48
ato 48
bases 48
bitch 48
bore 48
breathtaking 48
capitalism 48
catering 48
charactor 48
cic@@ 48
citation 48
ckly 48
collections 48
compliment 48
composer 48
conscience 48
contaminated 48
convinience 48
craft@@ 48
creams 48
crushed 48
dedicate 48
defect 48
deficiency 48
departed 48
discriminate 48
docs/@@ 48
du 48
ech 48
eco-friendly 48
eels 48
ego 48
emailed 48
emerge 48
empathy 48
enriched 48
equi@@ 48
esome 48
especi@@ 48
estimation 48
fanta@@ 48
fires 48
fumes 48
gal 48
gin@@ 48
glish 48
grap@@ 48
graphite-moderated 48
greying 48
guessing 48
gymnasium 48
harassment 48
hat@@ 48
haunted 48
hav@@ 48
hen 48
hl 48
hospitalization 48
hy 48
illumination 48
incomplete 48
individu@@ 48
indulge 48
iner@@ 48
insists 48
interpreted 48
ipad 48
irresponsible 48
jin@@ 48
lisence 48
lization 48
mass@@ 48
masterpieces 48
micro 48
misery 48
ml 48
mouths 48
mutated 48
nick 48
ning@@ 48
pastry 48
payout 48
pleasing 48
plug 48
prolifer@@ 48
pulse 48
pus 48
quali@@ 48
refugees 48
respectable 48
ression 48
seas 48
seasoned 48
sellers 48
shipped 48
shoo@@ 48
sincerity 48
sins 48
slot 48
snail 48
soaking 48
sociology 48
speciality 48
stati@@ 48
statistic 48
suggesting 48
summers 48
suspicion 48
swiming 48
sydney 48
sym@@ 48
tating 48
terror 48
thank@@ 48
think@@ 48
towels 48
treasures 48
tum 48
underlying 48
undertake 48
usualy 48
utilizing 48
vacant 48
vanished 48
viewpoints 48
vit@@ 48
voted 48
water-cooled 48
yness 48
í@@ 48
-in-@@ 47
-of-@@ 47
1960 47
2000@@ 47
30minutes 47
69 47
72 47
97 47
Adults 47
Aki@@ 47
Ale@@ 47
Amsterdam 47
Animal 47
Appro@@ 47
BBS 47
BCA 47
Bieber 47
Biology 47
Burger 47
CPU 47
Cell 47
Conf@@ 47
Desperate 47
Doc@@ 47
Dri@@ 47
Earlier 47
Expenditure 47
Fili@@ 47
Fol@@ 47
Fool 47
Funny 47
Geo@@ 47
Haiti 47
High-@@ 47
Individuals 47
Juliet 47
Kawa@@ 47
Keio 47
Kra@@ 47
Lavigne 47
Letter 47
Limiting 47
Lincoln 47
Marina 47
Mart 47
Mea@@ 47
Mount 47
Notebook 47
Okinawan 47
Photo@@ 47
Psycho@@ 47
Quar@@ 47
RFID-@@ 47
RPG 47
Ring 47
Roo@@ 47
SOME 47
SON@@ 47
SONY 47
Santiago 47
Sep@@ 47
Sor@@ 47
Stu@@ 47
Sw@@ 47
TAKE 47
Than@@ 47
Tre@@ 47
Understanding 47
Uni 47
WA@@ 47
WANT 47
Whoever 47
Yap 47
alongside 47
appl@@ 47
arranging 47
atomosphere 47
atta@@ 47
attempted 47
baby@@ 47
bells 47
bf 47
borders 47
broadcasts 47
bucks 47
bull 47
ce-@@ 47
certificates 47
chats 47
chon 47
cler@@ 47
cock 47
cognitive 47
competence 47
consensus 47
cooled@@ 47
corridor 47
cushion 47
dense 47
dialog 47
dict 47
discipl@@ 47
dishwasher 47
dles 47
dra 47
drying 47
e.g. 47
ello 47
emony 47
ender 47
enty 47
ert 47
esting 47
euro 47
excessively 47
expects 47
exquisite 47
farms 47
fiber 47
fing 47
flawed 47
fluid 47
fuckin 47
fundament@@ 47
geographical 47
gical 47
grate 47
hasn't 47
health-@@ 47
hindered 47
hosts 47
hrs 47
iMac 47
iding 47
ignoring 47
inequality 47
insight 47
integration 47
interacting 47
intersection 47
isolation 47
japan@@ 47
jects 47
jumps 47
knowledgeable 47
lantern 47
leftovers 47
mam 47
mang@@ 47
mansion 47
mattress 47
maxim@@ 47
mentions 47
millionaire 47
missions 47
mitting 47
nearer 47
noble 47
onset 47
opia 47
ord@@ 47
owed 47
pap@@ 47
passports 47
patient@@ 47
pear 47
percussion 47
pha@@ 47
pon 47
populated 47
portal 47
poten@@ 47
prospective 47
provi@@ 47
punctual 47
quarters 47
railroad 47
raincoat 47
recommends 47
regime 47
reinforce 47
rements 47
render 47
reserch 47
rigorous 47
rink 47
ris@@ 47
rotation 47
rum 47
sause 47
sd@@ 47
self@@ 47
sew 47
simplest 47
skater 47
slaves 47
sneeze 47
southeast 47
speeding 47
spla@@ 47
sprout 47
sses 47
standardi@@ 47
street@@ 47
struc@@ 47
suffer@@ 47
sunglasses 47
surround 47
switching 47
tability 47
tless 47
torn 47
translators 47
trucks 47
ty-@@ 47
ugh 47
ukulele 47
unsuccessful 47
varies 47
vering 47
vi 47
vowel 47
wed@@ 47
weed 47
wired 47
xed 47
-8@@ 46
.eu@@ 46
.go@@ 46
.in@@ 46
.org.uk/@@ 46
//www.channelnewsasia.com/stories/singaporelocalnews/view/@@ 46
//www.iisme.org/etp/HS 46
//www.moh.gov.sg/mohcorp/hcfinancing.aspx 46
//www.singstat.gov.sg/stats/@@ 46
2016 46
5pm 46
74 46
ASH@@ 46
AZ@@ 46
Absolutely 46
Af@@ 46
Ala@@ 46
Ali@@ 46
BL@@ 46
Bab@@ 46
Basic 46
Bla@@ 46
Boss 46
Cameroon 46
Chinatown 46
Cir@@ 46
Content@@ 46
Copenhagen 46
Cuba 46
DANNY 46
DIS@@ 46
Definitely 46
Developing 46
Dra@@ 46
Eat 46
Eye 46
Fl@@ 46
Florence 46
GRE 46
HC@@ 46
Head 46
Hu 46
JAL 46
Joseph 46
Kuro@@ 46
LANG 46
Magazine 46
Mall 46
Mehlman 46
Model 46
Monster 46
NTT 46
None 46
OH 46
ONS 46
OUND 46
Personal 46
Physi@@ 46
Podcast 46
Princi@@ 46
Rob@@ 46
SA 46
Sciences 46
Shou@@ 46
Simply 46
Skills 46
Some@@ 46
Strange 46
Sunny 46
TOYOTA 46
Tata 46
Tem@@ 46
Tochigi 46
Toyo@@ 46
Visa 46
WORLD 46
Wh 46
abor@@ 46
absor@@ 46
afri@@ 46
ain 46
anga 46
animes 46
apar@@ 46
archive@@ 46
bei 46
beijing 46
bend 46
bie 46
blogging 46
brick 46
broadband 46
bungee 46
c.@@ 46
cattle 46
celebrations 46
centered 46
check@@ 46
cheerfully 46
cian 46
cinemas 46
class@@ 46
conduc@@ 46
conser@@ 46
copyright 46
corro@@ 46
cosy 46
counsel@@ 46
cutlet 46
dam 46
denying 46
determin@@ 46
determinist 46
dia@@ 46
difficul@@ 46
dirt 46
disgusted 46
dissi@@ 46
doctoral 46
documentaries 46
dol@@ 46
downloading 46
dro 46
emits 46
emo@@ 46
emon 46
endeavor 46
enhancement 46
entrepreneurs 46
erased 46
escalator 46
esti@@ 46
ew@@ 46
exhibited 46
expla@@ 46
f/@@ 46
fares 46
farmland 46
feathers 46
fighters 46
fills 46
folded 46
forbid 46
formally 46
funniest 46
futures 46
gasoline-powered 46
gent@@ 46
gestures 46
gies 46
guiding 46
halloween 46
hanami 46
hassle 46
hee 46
hesitant 46
him@@ 46
ica@@ 46
icking 46
illegally 46
impaired 46
implanting 46
ingu@@ 46
instruc@@ 46
intrusion 46
isn 46
iter@@ 46
kawa@@ 46
kie 46
kit 46
kittens 46
landing 46
lik 46
litte 46
liv@@ 46
magnetic 46
mama 46
margin 46
menber 46
miners 46
missi@@ 46
modernization 46
monk 46
morality 46
motivating 46
motive 46
mutton 46
nals 46
needing 46
nin@@ 46
nn@@ 46
noticeable 46
notification 46
nucle@@ 46
occupations 46
omg 46
ope 46
opo@@ 46
parent@@ 46
pass@@ 46
pleasures 46
polices 46
porn 46
posing 46
pressured 46
prolong 46
pron@@ 46
psychologically 46
pt@@ 46
pyramid 46
questionable 46
rainfall 46
rations 46
realization 46
recital 46
relies 46
repl@@ 46
respiratory 46
rigid 46
roa@@ 46
router 46
routines 46
ruled 46
s,@@ 46
schooling 46
scienti@@ 46
sequ@@ 46
sharks 46
shment 46
skaters 46
skyscrapers 46
smen 46
soli@@ 46
spain 46
spiders 46
spreads 46
stead 46
stimulated 46
subordinates 46
superstition 46
suprise 46
surveillance@@ 46
swept 46
tapes 46
tee@@ 46
terrace 46
theses 46
tiresome 46
trac@@ 46
triggered 46
turbines 46
unpopular 46
ure@@ 46
vac@@ 46
whisky 46
wir@@ 46
zations 46
á@@ 46
ó@@ 46
10days 45
112@@ 45
AV 45
Ak@@ 45
Anpanman 45
Ash@@ 45
Big@@ 45
Burton 45
Cab@@ 45
Chrome 45
DA@@ 45
Damn 45
Detroit 45
Elder 45
Euro 45
Families 45
Francis 45
Fresh 45
Hell 45
Holidays 45
Important 45
Inc. 45
Inter 45
Ive 45
JPY 45
Jerry 45
Karen 45
Katakana 45
Lab 45
Leo 45
MB 45
MC@@ 45
MI@@ 45
Military 45
Motors 45
Multi@@ 45
Ninja 45
OTHER 45
Opposing 45
Price 45
Qing 45
Relations 45
Softbank 45
St. 45
Standard 45
Stanley 45
Tech 45
Voice 45
WH@@ 45
Woods 45
Yo 45
activi@@ 45
alistic 45
americ@@ 45
authori@@ 45
avatar 45
bad@@ 45
bai 45
band@@ 45
beacause 45
bid@@ 45
bour@@ 45
broader 45
cep@@ 45
cheers 45
clam 45
coaching 45
comb@@ 45
commerci@@ 45
comprises 45
correspon@@ 45
crackers 45
darker 45
deed 45
deterioration 45
dic 45
donuts 45
dug 45
dys@@ 45
eck 45
entrepreneurship 45
eres 45
exceptional 45
eyelids 45
fearful 45
featuring 45
fertile 45
fertilizer 45
finaly 45
ggle 45
gic 45
graphy 45
half@@ 45
healed 45
helper 45
hospit@@ 45
households 45
huh 45
humili@@ 45
idence 45
imformation 45
imit@@ 45
impede 45
imperative 45
importing 45
inher@@ 45
innovators 45
instability 45
intentionally 45
iru 45
iser 45
joy@@ 45
kendo 45
liar 45
ling@@ 45
lize 45
longevity 45
lungs 45
make@@ 45
malfunction 45
marriages 45
mart 45
matics 45
matured 45
medias 45
migrate 45
moderni@@ 45
modifications 45
mour@@ 45
mur@@ 45
nets 45
northeast 45
notices 45
notify 45
num@@ 45
nurturing 45
pac@@ 45
paced 45
panicked 45
particul@@ 45
passions 45
pediat@@ 45
pel 45
peninsula 45
perfection 45
periodically 45
persp@@ 45
pirate 45
pirates 45
pizzas 45
popped 45
prea@@ 45
privileged 45
proudly 45
pumps 45
quantities 45
recep@@ 45
recyclable 45
rious 45
satisfies 45
sculptures 45
sday 45
separ@@ 45
shel@@ 45
shinkansen 45
sian 45
sible 45
simplicity 45
singular 45
situ@@ 45
skies 45
sleeved 45
specula@@ 45
starred 45
storyline 45
stunning 45
subscri@@ 45
substantially 45
suspects 45
tac@@ 45
taht 45
theatres 45
their@@ 45
therapist 45
thig 45
tigers 45
til 45
times@@ 45
timid 45
translates 45
typically 45
unaware 45
unite 45
uu@@ 45
vacancy 45
valentine 45
vent 45
venues 45
vic 45
vid 45
vine 45
webpage 45
wonderland 45
wonders 45
y.com/@@ 45
.5 44
.com.cn/@@ 44
.edu@@ 44
.sg 44
/0,@@ 44
07/@@ 44
1.htm 44
13&mode 44
15000 44
158 44
2007/@@ 44
2008/@@ 44
20080@@ 44
2009. 44
240 44
3.html 44
3GS 44
450 44
4days 44
5days 44
6000 44
750 44
92 44
98@@ 44
Adding 44
All@@ 44
Ame@@ 44
Ancient 44
Asi@@ 44
Back@@ 44
Bre@@ 44
Bush 44
Captain 44
Costa 44
Costco 44
DON 44
Dallas 44
Eli@@ 44
FF 44
Find 44
Fir@@ 44
Fuji@@ 44
GM@@ 44
Gil@@ 44
Grey 44
HL 44
HS 44
Happiness 44
Holmes 44
I'@@ 44
Ill@@ 44
MUS@@ 44
Macau 44
Marie 44
Mariners 44
Mcdonald 44
Mine 44
Mochi 44
Mouse 44
Must 44
NR@@ 44
NRC 44
Nowdays 44
One@@ 44
Political 44
Pra@@ 44
Proponents 44
Room 44
Safari 44
Sar@@ 44
Sev@@ 44
Seyyed 44
Simple 44
Simpsons 44
Stories 44
Sue 44
Swift 44
TOO 44
TU 44
Table 44
Tottori 44
UDON 44
VHT@@ 44
VIP 44
Var@@ 44
Weekend 44
Went 44
Whi@@ 44
Word@@ 44
Yuan 44
_id 44
a.com/@@ 44
aching 44
acoustic 44
ades 44
advocate 44
aesthetic 44
affir@@ 44
al. 44
allocating 44
ally@@ 44
analysing 44
analytical 44
ango 44
annu@@ 44
anti-aging 44
autograph 44
bent 44
bes@@ 44
bias 44
bok 44
bord 44
broiled 44
caption 44
catched 44
champagne 44
changeable 44
chees@@ 44
chemist 44
chubby 44
cive 44
classics 44
colle@@ 44
collo@@ 44
comforted 44
composing 44
conferences 44
considers 44
consu@@ 44
contacting 44
contam@@ 44
convic@@ 44
crabs 44
curi@@ 44
d.@@ 44
deforestation 44
del 44
deri@@ 44
desalination 44
dial 44
diesel 44
dip 44
doc 44
document@@ 44
ducks 44
eafter 44
eau 44
eds 44
effici@@ 44
encounters 44
euros 44
excel 44
faded 44
fea@@ 44
fig@@ 44
forgets 44
forums 44
frigh@@ 44
full/@@ 44
guts 44
habit@@ 44
health/@@ 44
high-temperature 44
honorific 44
hosp@@ 44
incul@@ 44
injections 44
interference 44
iny 44
ion@@ 44
landlady 44
lap@@ 44
lates 44
lator 44
lease 44
linguistic 44
literary 44
lob@@ 44
locker 44
lowing 44
ly-@@ 44
mas@@ 44
mercy 44
meth@@ 44
migration 44
n.@@ 44
need@@ 44
newborn 44
nightmares 44
oe 44
oming 44
ont 44
opt 44
orium 44
ort@@ 44
overcrowded 44
packaging 44
pei 44
picks 44
ply 44
popcorn 44
possession 44
predic@@ 44
pref 44
prevent@@ 44
promptly 44
prosper 44
proverbs 44
provo@@ 44
public@@ 44
ranks 44
redi@@ 44
regretting 44
restraunt 44
ripe 44
roe 44
rotten 44
satis@@ 44
scal@@ 44
scen@@ 44
secondly 44
shifted 44
shyness 44
sounding 44
speach 44
specification 44
stain 44
stereotypes 44
stretched 44
stuff@@ 44
sustaining 44
techno@@ 44
ted@@ 44
unconscious 44
underwent 44
uro@@ 44
ury 44
utili@@ 44
vaccines 44
val 44
variations 44
vas@@ 44
vase 44
volley 44
wandered 44
widen 44
won@@ 44
yell 44
yers 44
yton 44
-related 43
.com/2009/0@@ 43
100000 43
1year 43
22th 43
5years 43
97@@ 43
ACT 43
ASHI 43
Adv@@ 43
Albert 43
BACK 43
Brazilians 43
Bron@@ 43
DN'T 43
Disaster 43
Edinburgh 43
Favorite 43
Foreigners 43
Fox 43
Fridays 43
Fur@@ 43
GH@@ 43
Haiku 43
Hallows 43
Housewives 43
ICAL 43
Iceland 43
Italians 43
JLPT 43
Julia 43
KU 43
Kan 43
Keigo 43
Kevin 43
Kid@@ 43
LL 43
Lessons 43
Lim@@ 43
MANGA 43
MI 43
MIS@@ 43
MR 43
Ma 43
Minh 43
Mozart 43
Muslim 43
NEWS 43
Nov@@ 43
Oden 43
Organiser 43
Origami 43
Oscar 43
Phoenix 43
Protection 43
Province 43
Ps 43
Result 43
Roc@@ 43
Sister 43
Soup 43
Sources 43
Stati@@ 43
TSU@@ 43
Topic 43
Tro@@ 43
USSR 43
Ugly 43
Univ 43
Up@@ 43
VER 43
Wait 43
Wave 43
Xi 43
Yamaguchi 43
abdominal 43
accelerate 43
addictive 43
adm@@ 43
aggressively 43
aided 43
alarming 43
ambi@@ 43
appli@@ 43
aroused 43
asa 43
auth@@ 43
barking 43
beetle 43
bor 43
brightly 43
buffer 43
buzzing 43
chamber 43
champions 43
chernoby@@ 43
clothe 43
clues 43
cockroaches 43
comparative 43
confined 43
connec@@ 43
cops 43
cracking 43
cup@@ 43
cut@@ 43
debris 43
deg@@ 43
dence 43
depl@@ 43
din 43
ding@@ 43
dition@@ 43
domain 43
dots 43
duced 43
echo@@ 43
effec@@ 43
especialy 43
exclusively 43
exposition 43
extra@@ 43
eye@@ 43
facili@@ 43
feather 43
fluoride 43
freaking 43
god@@ 43
grasses 43
grum@@ 43
hage 43
hairs 43
headmaster 43
highlights 43
hinders 43
hints 43
hs 43
hub 43
impo@@ 43
indian 43
inese 43
instrumental 43
inted 43
integral 43
inventory 43
jobless 43
keywords 43
kun 43
leaks 43
lor@@ 43
maturity 43
mentioning 43
mind@@ 43
mines 43
mist 43
moist 43
monopoly 43
moto@@ 43
needles 43
nology 43
occupational 43
odds 43
ofcourse 43
oku@@ 43
olds 43
onary 43
ono@@ 43
optimal 43
oriental 43
overview 43
pause 43
peace@@ 43
phi@@ 43
pillars 43
portfolio 43
pow@@ 43
preci@@ 43
premiums 43
prey 43
problematic 43
professionally 43
publication 43
pursued 43
renovated 43
resembles 43
resist@@ 43
revision 43
ria 43
rushing 43
sati@@ 43
scar 43
scoo@@ 43
seize 43
shallow 43
shments 43
singles 43
skipping 43
slender 43
societ@@ 43
stamps 43
stical 43
stitutes 43
strap 43
subsidi@@ 43
supplying 43
swore 43
tails 43
taly 43
throught 43
tified 43
tioning 43
trainings 43
transmitted 43
triangle 43
ts@@ 43
uka 43
ula 43
upload@@ 43
uss 43
utiful 43
virtue 43
waits 43
wii 43
would@@ 43
zones 43
&source 42
.com.sg/@@ 42
//www.mom.gov.sg/publish/momportal/en/@@ 42
//www.o@@ 42
10-@@ 42
10.1038/@@ 42
160@@ 42
20PM@@ 42
30AM 42
78 42
Account 42
Add 42
Answer 42
Beginning 42
Body 42
Brain 42
Bry@@ 42
Btw 42
CO 42
CONCERT 42
Cancer@@ 42
Chongqing 42
Cogeneration 42
Concert 42
Course 42
Deathly 42
Declan 42
Depp 42
Division 42
ENTS 42
Enter@@ 42
Every@@ 42
Ex 42
Example 42
Experience 42
Finnish 42
Firefox 42
Fo@@ 42
Ford 42
Giant 42
Gion 42
Gogh 42
HAPPY 42
Haw@@ 42
Integrated 42
Islamic 42
Jogging 42
Judo 42
Julie 42
Kami@@ 42
Kno@@ 42
Lead-cooled 42
Len@@ 42
Leon 42
Lev@@ 42
Mach@@ 42
Massachusetts 42
Matsu@@ 42
Mehta 42
Messi 42
Mind 42
Myanmar 42
NET 42
Newspaper 42
Nikkei 42
Normal 42
Odawara 42
Painting 42
Percy 42
Provi@@ 42
Sai@@ 42
Shinjyuku 42
Shop@@ 42
Shuttle 42
Simon 42
Spa 42
Step 42
Swine 42
Tainan 42
Tango 42
UM 42
Uh 42
Vista 42
Visual 42
WW2 42
Wimbledon 42
_reactor@@ 42
_reactor_@@ 42
abili@@ 42
adversely 42
aftermath 42
amazon 42
anatomy 42
anding 42
april 42
arily 42
asia@@ 42
assumption 42
athletics 42
attendees 42
australia 42
bank@@ 42
beautician 42
bic 42
biscuits 42
brigh@@ 42
brochure 42
bubbles 42
carriage 42
chefs 42
clicking 42
closure 42
colds 42
communicative 42
creations 42
danger@@ 42
dian 42
discarded 42
double-@@ 42
dryer 42
dumped 42
ectors 42
edly 42
eger 42
elem@@ 42
element@@ 42
eliminating 42
elle 42
elsewhere 42
epicenter 42
equation 42
eri@@ 42
es.com/@@ 42
exploration 42
fier 42
flav@@ 42
float 42
fr.htm 42
gee 42
genetic_@@ 42
ghts 42
governor 42
gp@@ 42
habitats 42
hacker 42
headphones 42
hil@@ 42
histories 42
ilo@@ 42
indifferent 42
inertia 42
infants 42
inhi@@ 42
interrup@@ 42
ions 42
irrelevant 42
juniors 42
kable 42
l.gov/@@ 42
lau@@ 42
liberal 42
lif@@ 42
listeners 42
logistics 42
lunches 42
maki 42
manages 42
mex@@ 42
migra@@ 42
mobiles 42
monitors 42
monks 42
monument 42
motivates 42
nament 42
nas@@ 42
next@@ 42
now@@ 42
obser@@ 42
ools 42
oranges 42
organisms 42
p.org/@@ 42
pages/@@ 42
parallel 42
pdf 42
pearl 42
pers 42
persistent 42
pian 42
pierced 42
populari@@ 42
prac@@ 42
prisoners 42
probable 42
psychology@@ 42
pud@@ 42
py@@ 42
ques 42
rafting 42
reti@@ 42
richest 42
right@@ 42
rin@@ 42
ris 42
robo@@ 42
roofs 42
sacred 42
sad@@ 42
sam 42
sarcastic 42
shadowing 42
sparked 42
speak@@ 42
special@@ 42
spotted 42
standpoint 42
start@@ 42
stein 42
stered 42
stries 42
stro 42
susp@@ 42
tai 42
tatami 42
telecommunication 42
throws 42
tide 42
treatable 42
tus 42
tutoring 42
tweets 42
unrelated 42
urged 42
urgently 42
wellness 42
worring 42
worsening 42
zh@@ 42
'(@@ 41
1800 41
2500 41
Akira 41
Akita 41
Alps 41
Anything 41
App 41
Beethoven 41
Bell 41
Bento 41
Canon 41
Carol 41
Cats 41
Census 41
Cent@@ 41
Clar@@ 41
Cleaning 41
Clinton 41
Construction 41
Core 41
Daddy 41
Degree 41
Down@@ 41
Dynasty 41
Encyclopedia 41
Eri@@ 41
Exercise 41
Experim@@ 41
Fair 41
GE 41
GN@@ 41
Geographic 41
Goku 41
Graduate 41
Hag@@ 41
Hama@@ 41
IES 41
IX 41
Interesting 41
Ita@@ 41
JP 41
KING 41
Kagawa 41
Kendo 41
Kun@@ 41
Liberal 41
Liberty 41
Life@@ 41
Lim 41
MOM 41
Machine 41
Macintosh 41
Madonna 41
Metro 41
NT 41
Nin@@ 41
Occasionally 41
Pearl 41
Piano 41
Prevention 41
Re 41
Regulatory 41
Resear@@ 41
Robin 41
Ruby 41
SEC@@ 41
SHIN@@ 41
Saf@@ 41
Sean 41
Shan@@ 41
Sleeping 41
Son@@ 41
Soul 41
Stay 41
Swan 41
Taiyaki 41
Techno@@ 41
Tour 41
Wol@@ 41
Writ@@ 41
accoun@@ 41
adjusting 41
administrator 41
advert 41
aerobic 41
aes@@ 41
airlines 41
ample 41
anesthesia 41
anic 41
appearances 41
arch 41
archery 41
ares 41
atures 41
bazaar 41
bies 41
bili@@ 41
biz 41
blast 41
block@@ 41
boarded 41
bottled 41
bouldering 41
bowel 41
budget@@ 41
buri 41
buyers 41
carelessly 41
casted 41
cau@@ 41
chains 41
chairman 41
childrens 41
cht 41
circus 41
clubbing 41
coal@@ 41
colo@@ 41
compar@@ 41
compound 41
congratu@@ 41
congress 41
conserve 41
conve@@ 41
correspond 41
cultivating 41
decayed 41
deepest 41
descri@@ 41
deserved 41
devils 41
dissertation 41
doo@@ 41
dozen 41
dozens 41
droped 41
eded 41
elty 41
ema 41
embr@@ 41
emig@@ 41
enqu@@ 41
environmentally-friendly 41
exert 41
extensively 41
familial 41
fax 41
fisherman 41
flame 41
flea 41
forgave 41
fork 41
harms 41
hon 41
hook 41
horri@@ 41
ich 41
identally 41
illa@@ 41
impairment 41
inan 41
inspires 41
interes@@ 41
ironically 41
jer@@ 41
job@@ 41
kindergar@@ 41
kom@@ 41
kor@@ 41
kung 41
kyou 41
lanterns 41
leaflet 41
learnd 41
lement 41
listic 41
loca@@ 41
lum 41
marrige 41
master@@ 41
math@@ 41
moo@@ 41
morals 41
near@@ 41
nerv@@ 41
non-renewable 41
obese 41
obsolete 41
october 41
ose 41
paci@@ 41
papers/@@ 41
parted 41
payments 41
peer 41
persi@@ 41
pickles 41
pleasantly 41
preferable 41
prep 41
problem@@ 41
proponents 41
publisher 41
rap@@ 41
rape 41
reasoning 41
recomm@@ 41
ret@@ 41
rider 41
rier 41
riots 41
say@@ 41
scandal 41
se-@@ 41
semi@@ 41
seriousness 41
shifts 41
shire 41
six@@ 41
skin@@ 41
skunkwork 41
sma@@ 41
socialize 41
speeds 41
starvation 41
successive 41
suki 41
suppress 41
system@@ 41
tar 41
tari@@ 41
taxation 41
tempered 41
ternity 41
thailand 41
thorium 41
tournaments 41
uko 41
viet@@ 41
wastage 41
wating 41
wha@@ 41
workbook 41
zzy 41
.2 40
.about.com/od/@@ 40
.gov/ 40
//news.cnet.com/@@ 40
//nuclear.inl.gov/gen4/@@ 40
//www.nature.com.libproxy1.nus.edu.sg/@@ 40
//www.ne.doe.gov/@@ 40
//www.pub@@ 40
//www.straitstimes.com/Breaking 40
/06/@@ 40
/index.html 40
1.0 40
130 40
1Q84 40
1pm 40
230 40
3.htm 40
300000 40
3hours 40
46@@ 40
52@@ 40
85@@ 40
8pm 40
?@@ 40
Action 40
Andrea 40
Any@@ 40
Aso 40
BFA 40
Black@@ 40
Brothers 40
Brussels 40
C-@@ 40
Cel@@ 40
Certificate 40
Charlotte 40
Chernoby@@ 40
Common 40
Cut 40
DEAR 40
Doctors 40
Eldershield 40
Engl@@ 40
FP 40
Feb@@ 40
Fight 40
Frequently 40
Fried 40
Hakata 40
Hand@@ 40
Hap@@ 40
Heartmate 40
Hok@@ 40
Home@@ 40
Hoo@@ 40
IDE 40
Ironically 40
Jacob 40
Jul@@ 40
KA 40
KLM 40
Ki 40
Kimura 40
Kir@@ 40
Lang@@ 40
Libya 40
Lucy 40
MANY 40
MOH 40
Mai 40
Mir@@ 40
Mongolia 40
Myspace 40
NFL 40
NT@@ 40
Naoto 40
Nondiscrimination 40
Nuclear-@@ 40
O-@@ 40
Ow@@ 40
PIC@@ 40
Pink 40
Pon@@ 40
Pretty 40
Rabbit 40
Roma 40
Romeo 40
SEN@@ 40
SIN@@ 40
SN@@ 40
Science@@ 40
Seniors 40
Shir@@ 40
Silicon 40
Stars 40
Ster@@ 40
Sting 40
Supercritical-Water-cooled 40
Supercritical-water-cooled 40
TOR 40
Taichung 40
Take@@ 40
Tea@@ 40
Teenagers 40
Text 40
Tran@@ 40
Tun@@ 40
Ul@@ 40
VO@@ 40
Very-high-temperature 40
WERE 40
WN 40
Xbox 40
Xiao 40
acceler@@ 40
accounted 40
aded 40
alu@@ 40
analog 40
angers 40
angs 40
anian 40
announcer 40
arrow 40
artworks 40
autographs 40
autonomy 40
ax@@ 40
bages 40
bara 40
biometric 40
boar@@ 40
brain@@ 40
bree@@ 40
breeding 40
buff@@ 40
buy@@ 40
ca/@@ 40
caffeine 40
cal_@@ 40
carbon@@ 40
cc 40
charts 40
childbirth 40
ciation 40
cicada 40
cigar@@ 40
coconut 40
collap@@ 40
coloni@@ 40
combining 40
commands 40
compelling 40
complement 40
configuration 40
conservation 40
contracts 40
coordinate 40
cosplay 40
crum@@ 40
daddy 40
dal@@ 40
data@@ 40
defini@@ 40
deployed 40
dial@@ 40
disappearing 40
disappears 40
disea@@ 40
dome 40
doorbell 40
dun@@ 40
eated 40
economic@@ 40
ection@@ 40
ecu@@ 40
eet 40
effected 40
efs 40
elli 40
ems 40
enabling 40
ench 40
enko 40
enta@@ 40
eternal 40
ethic@@ 40
euthan@@ 40
evol@@ 40
exaggeration 40
explo@@ 40
ference 40
fertilization 40
fid@@ 40
fle@@ 40
flick 40
flowed 40
forum@@ 40
fragrant 40
froze 40
future@@ 40
gae 40
gamble 40
geeks 40
glee 40
goat 40
greener 40
grip 40
gyms 40
harn@@ 40
headquarters 40
heartwarming 40
heat-@@ 40
hiphop 40
icially 40
identical 40
idly 40
iest 40
incorporate 40
index.html 40
infr@@ 40
innovating 40
inquiry 40
insane 40
institu@@ 40
intrested 40
iry 40
ises 40
isons 40
ister 40
itely 40
jor@@ 40
kov 40
laugh@@ 40
lee 40
lf 40
li 40
lobby 40
mafia 40
man-@@ 40
mechanic 40
melancholy 40
midst 40
mming 40
nish 40
nitrogen 40
not@@ 40
noti@@ 40
notified 40
offline 40
oner 40
opti@@ 40
pajamas 40
particle 40
pdf@@ 40
peas 40
perfom@@ 40
perfor@@ 40
photographers 40
pil@@ 40
ple@@ 40
pli@@ 40
plots 40
precaution 40
press_@@ 40
proof@@ 40
ps@@ 40
punc@@ 40
punish 40
quakes 40
quick@@ 40
quited 40
rechar@@ 40
remem@@ 40
responding 40
restaur@@ 40
retailers 40
rig@@ 40
rod 40
rop@@ 40
rusty 40
sabo@@ 40
safeguard 40
sav@@ 40
self-reliance 40
smith 40
sn 40
snorkeling 40
snowfall 40
soun@@ 40
spam 40
spill 40
spine 40
starter 40
strated 40
stressing 40
subjective 40
sus 40
tance 40
than@@ 40
thermometer 40
thighs 40
trillion 40
tta 40
udes 40
unfriendly 40
url 40
vern@@ 40
versi@@ 40
villa@@ 40
vitro 40
wana 40
watermelons 40
willpower 40
...@@ 39
..@@ 39
.4 39
31@@ 39
3kg 39
80s 39
91 39
911 39
Advantages 39
Aero@@ 39
Ashby 39
Associated 39
Badminton 39
CAMPS 39
Clinical 39
Cool 39
Customer 39
Dragons 39
Esp@@ 39
Exc@@ 39
FUTURE 39
Freedom 39
Gas-cooled 39
Hide@@ 39
Hip 39
Histor@@ 39
IMA 39
ISH@@ 39
IST 39
Ishi@@ 39
Iz@@ 39
JAPANESE 39
JU@@ 39
JUST 39
KARAOKE 39
KO 39
Kid 39
Large 39
Libr@@ 39
Link 39
Linkin 39
Lou@@ 39
MENT 39
Matsuri 39
Micha@@ 39
Myself 39
Nag@@ 39
Nano 39
Oper@@ 39
Orlando 39
PC@@ 39
POP 39
Pad 39
Pet@@ 39
Phantom 39
Pick@@ 39
Plaza 39
Power@@ 39
Prof 39
Py@@ 39
Return 39
Rockets 39
SMS 39
Saying 39
Shel@@ 39
Sher@@ 39
Shikoku 39
Sm@@ 39
Solutions 39
Soy 39
TTER 39
Tab@@ 39
Teresa 39
Thats 39
Thing 39
Toefl 39
Trea@@ 39
View 39
Wednesdays 39
Wen@@ 39
Wife 39
YES 39
Yao 39
accumulation 39
adver@@ 39
aerobics 39
alien@@ 39
anci@@ 39
apologi@@ 39
appoin@@ 39
arbit@@ 39
ared 39
ash@@ 39
asser@@ 39
associations 39
ath 39
ava@@ 39
backing 39
berries 39
bert 39
best@@ 39
blueberry 39
boasts 39
borrowing 39
browsed 39
calculations 39
cardiovascular 39
catal@@ 39
cavities 39
celsius 39
ceramics 39
characterized 39
chment 39
cholesterol 39
cise 39
civilian 39
coal-@@ 39
cocktails 39
collaborate 39
comeback 39
confectionery 39
contexts 39
conting@@ 39
contradiction 39
convi@@ 39
coordin@@ 39
countri@@ 39
critically 39
crows 39
d_@@ 39
dashed 39
deceived 39
deeds 39
definitions 39
dentists 39
dispatched 39
diver@@ 39
dominate 39
ducing 39
earphones 39
ede 39
eep 39
ember 39
enthusi@@ 39
eria 39
exchanger 39
excluding 39
explosive 39
ez 39
fa 39
fabrics 39
familiy 39
familly 39
fastfood 39
fications 39
flaw 39
fores@@ 39
gaps 39
googled 39
grapher 39
gues 39
handing 39
heartily 39
hefty 39
hei@@ 39
hopeful 39
hydrogen@@ 39
iden 39
ii@@ 39
illed 39
impor@@ 39
increa@@ 39
industrialization 39
inferiority 39
infomation 39
intensi@@ 39
intervene 39
invades 39
iration 39
itly 39
itter 39
ization 39
jur@@ 39
kilo 39
lan 39
languge 39
legged 39
limbs 39
line@@ 39
magaz@@ 39
mam@@ 39
mari@@ 39
medieval 39
metabolism 39
mindsets 39
misha@@ 39
mod@@ 39
modeling 39
moderator 39
modes 39
mold 39
mony 39
morale 39
motorbikes 39
muddy 39
myths 39
nan@@ 39
neighbouring 39
nem@@ 39
novice 39
observatory 39
ometri@@ 39
onies 39
oos 39
opener 39
overcame 39
overheating 39
panese 39
paparazzi 39
participant 39
people/@@ 39
perpe@@ 39
pit 39
pitiful 39
pm@@ 39
polar 39
powdered 39
pre-@@ 39
precision 39
prints 39
provinces 39
puzzles 39
rash 39
recovers 39
rectify 39
regu@@ 39
rejection 39
resemble 39
reson@@ 39
revelation 39
revenues 39
rised 39
robber 39
rr@@ 39
sear@@ 39
sed@@ 39
seki 39
self-sufficient 39
separates 39
shabby 39
sheer 39
shiel@@ 39
shit@@ 39
shitty 39
shocks 39
sidewalk 39
simpli@@ 39
sparkling 39
stly 39
storey 39
sums 39
superb 39
surrender 39
surviving 39
sweep 39
tapping 39
tative 39
tes@@ 39
text@@ 39
thirst 39
threatens 39
topping 39
uku 39
unities 39
unsatisfied 39
unskilled 39
utes 39
verify 39
versity 39
vessels 39
violate 39
violated 39
vocational 39
wasabi 39
watering 39
wifi 39
wikipedia 39
wires 39
za@@ 39
zers 39
--@@ 38
-23@@ 38
.com.@@ 38
//www.moh.gov.sg/mohcorp/@@ 38
//www.nytimes.com/@@ 38
//www.world-nuclear.org/info/inf77.html 38
//www.world-nuclear.org/info/inf@@ 38
10kg 38
1th 38
2009-@@ 38
3,@@ 38
6am 38
ALWAYS 38
ANT 38
ANY 38
AW@@ 38
Americ@@ 38
Arthur 38
Assistant 38
BAD 38
BO 38
Bak@@ 38
Blo@@ 38
Brad@@ 38
Brandon 38
Brow@@ 38
Bruno 38
But@@ 38
CAR@@ 38
CHA@@ 38
Carl 38
Carl@@ 38
Chandler 38
Christchurch 38
CommunityPage&parentid 38
Convention 38
Creative 38
Criminal 38
Dose 38
Empire 38
Employees 38
Equ@@ 38
Evening 38
Extremadura 38
Factory 38
Friendship 38
Fuj@@ 38
GAR@@ 38
GEN@@ 38
Gold@@ 38
Grace 38
Guys 38
Healthy 38
Hou@@ 38
IM 38
ISS 38
Ipod 38
KAN@@ 38
KIMONO 38
Khosrau 38
King@@ 38
Land@@ 38
MONEY 38
Masa@@ 38
Meg@@ 38
Nakata 38
Neil 38
Nelson 38
Nig@@ 38
Nik@@ 38
Nursing 38
OUS 38
Obi 38
Oda 38
Organisation 38
Paulo 38
Pea@@ 38
Pixar 38
Plutonium 38
Post-it 38
Programming 38
Release 38
Russians 38
Shogi 38
Spears 38
Sti@@ 38
Strategy 38
Sung 38
TWO 38
Thankfully 38
Thi@@ 38
Transit 38
Um 38
VER@@ 38
VIS@@ 38
Waste 38
Wee@@ 38
Williams 38
Wo 38
Won@@ 38
Yankees 38
Yukio 38
_2@@ 38
absorbing 38
achi 38
activate 38
adjustments 38
adverb 38
amused 38
anonymous 38
ario 38
attentions 38
audi@@ 38
automation 38
ay@@ 38
bangs 38
bear@@ 38
better@@ 38
bish 38
blog/@@ 38
bracelet 38
brunch 38
buds 38
carto@@ 38
catar@@ 38
categorized 38
celebrates 38
chaotic 38
chool 38
chop 38
ckets 38
cock@@ 38
commuters 38
contracted 38
darts 38
december 38
default@@ 38
defferent 38
deleg@@ 38
depo@@ 38
dez 38
diction@@ 38
diligence 38
disappoin@@ 38
dium 38
divi@@ 38
dorama 38
drinker 38
easygoing 38
ebay 38
eline 38
ells 38
emergence 38
ens@@ 38
equals 38
erup@@ 38
etion 38
evaluating 38
examining 38
excit@@ 38
exploitation 38
extinction 38
fabri@@ 38
fix@@ 38
flamenco 38
foresee 38
forget@@ 38
fossil-@@ 38
glimpse 38
governing 38
graves 38
guide@@ 38
hap@@ 38
harmless 38
hei 38
hemisphere 38
hesit@@ 38
hula 38
hygiene 38
idols 38
iga@@ 38
ike 38
illiterate 38
imaged 38
ime@@ 38
induced 38
ington 38
injure 38
introverted 38
irritate 38
ishing 38
ith@@ 38
jammed 38
lators 38
leagues 38
licious 38
longtime 38
lot@@ 38
magician 38
masen 38
mated 38
melodies 38
metallic 38
metaphor 38
mim@@ 38
misfortune 38
nervousness 38
noone 38
nuclear/@@ 38
objection 38
offend 38
old@@ 38
onable 38
ony@@ 38
outbreak 38
pag@@ 38
paradigm 38
parasol 38
parti@@ 38
passively 38
pavement 38
pebbles 38
petro@@ 38
pilots 38
pls 38
poisonous 38
politeness 38
popula@@ 38
possesses 38
pp.136-@@ 38
predictions 38
prefer@@ 38
prefered 38
premiere 38
quar@@ 38
quilt 38
rai 38
rail@@ 38
readings 38
reason@@ 38
receiver 38
reforms 38
reluctantly 38
report@@ 38
resumes 38
ritual 38
robotic@@ 38
rock@@ 38
sack 38
sank 38
sations 38
scanner 38
scholar 38
scholars 38
sculpture 38
seless 38
should@@ 38
singapore.org/uploadfile/2@@ 38
skep@@ 38
soooooo 38
stained 38
stake 38
stan@@ 38
stery 38
submitting 38
subways 38
sui 38
suite 38
surfaces 38
swinging 38
tator 38
tease 38
techni@@ 38
tern 38
therap@@ 38
tiful 38
tomatos 38
topics/@@ 38
topped 38
tornado 38
trainees 38
truely 38
tub 38
unbearable 38
underwater 38
utilities 38
variable 38
vely 38
warfarin 38
wen 38
wol@@ 38
wrinkles 38
yer@@ 38
yi 38
youtube@@ 38
zai 38
zealand 38
zer@@ 38
'T 37
10years 37
1600 37
3pm 37
4pm 37
76@@ 37
AIN 37
ARP 37
ARS 37
Acu@@ 37
Alaska 37
Alex@@ 37
Ali 37
Awards 37
BEEN 37
BEFORE 37
Bear 37
Bernard 37
Bin 37
Bird 37
Bluetooth 37
Box 37
Bright 37
CK 37
Challenges 37
Citizen 37
Commercial 37
Contro@@ 37
Crisis 37
ED@@ 37
Eiffel 37
Evangelion 37
Exaggerated 37
Flash 37
Geisha 37
Guar@@ 37
Gunma 37
Hab@@ 37
Helping 37
Hungary 37
INTER@@ 37
Identity 37
Independent 37
Justice 37
KIN@@ 37
Koku@@ 37
Kong@@ 37
Larry 37
Leg@@ 37
Lewis 37
Liber@@ 37
MAN@@ 37
MJ 37
MOR@@ 37
Ment@@ 37
Mik@@ 37
Morocco 37
Morrie 37
Motor@@ 37
Nico 37
Nihon 37
Nissan 37
OB@@ 37
Otaru 37
Phar@@ 37
Pollution 37
Production 37
Rac@@ 37
Reader 37
Rene@@ 37
Response 37
SHO@@ 37
SS 37
Search 37
Speci@@ 37
Sri@@ 37
Str@@ 37
Swahili 37
Tokugawa 37
Translation 37
Tru@@ 37
Tyler 37
UD@@ 37
Utada 37
Viewpoints 37
Wolf 37
Woo@@ 37
Yakisoba 37
accelerated 37
accidently 37
advocates 37
alarms 37
alities 37
alty 37
apper 37
assembled 37
asset@@ 37
assisting 37
ati@@ 37
atoms 37
attacking 37
awaiting 37
bc@@ 37
behaving 37
bravery 37
buddies 37
bulk 37
channelled 37
cherries 37
chir@@ 37
cid 37
cists 37
clarify 37
clearance 37
clim@@ 37
clou@@ 37
comer 37
comical 37
concl@@ 37
confirmation 37
construc@@ 37
constructions 37
consumes 37
coolest 37
coward 37
cracker 37
crepe 37
crispy 37
ctic 37
custom@@ 37
cyber@@ 37
declaration 37
defines 37
deliberately 37
diversion 37
dling 37
dubbing 37
dumb 37
dumping 37
eggplants 37
eighth 37
eiving 37
elder-friendly 37
elections 37
emitting 37
emphasi@@ 37
emphasizes 37
encyclopedia 37
endured 37
erase 37
essary 37
estion 37
etting 37
expe@@ 37
eyebrows 37
faraway 37
fatalities 37
fend 37
ffer 37
for-@@ 37
ford@@ 37
foregin 37
frea@@ 37
gaga 37
gate@@ 37
gigantic 37
girl@@ 37
grandchild 37
grandson 37
greed 37
ground@@ 37
hail 37
hammer 37
healty 37
heel 37
hemorr@@ 37
honored 37
hori@@ 37
horizon@@ 37
hosting 37
humankind 37
hydro@@ 37
iland 37
imasu 37
imitating 37
immedi@@ 37
imprison@@ 37
inactive 37
inated 37
incorpor@@ 37
incurable 37
induce 37
infla@@ 37
influencing 37
inking 37
insecure 37
insti@@ 37
instructed 37
instructors 37
irre@@ 37
itary 37
je 37
kab@@ 37
keepers 37
labor@@ 37
lapse 37
laser 37
lege 37
legendary 37
leisurely 37
liest 37
lil 37
listing 37
logging 37
lotion 37
macro@@ 37
mainstream 37
metal@@ 37
mir@@ 37
nap@@ 37
nate 37
nighttime 37
obscure 37
oils 37
omy 37
onics 37
opic 37
oppotunities 37
opy 37
oung 37
oysters 37
packet 37
payers 37
pharmacist 37
porridge 37
ports 37
practica@@ 37
pratice 37
privileges 37
proposition 37
ptions 37
rab@@ 37
re- 37
reactive 37
realities 37
recomended 37
recuperate 37
reduc@@ 37
reflex@@ 37
rein@@ 37
rence 37
reprocessed 37
retirees 37
scenarios 37
sceneries 37
scho@@ 37
schoolmates 37
sensed 37
settings 37
setup 37
shades 37
ship@@ 37
singly 37
ska 37
skateboard 37
slipping 37
sman@@ 37
soooooooo@@ 37
spontaneously 37
sta 37
stig@@ 37
subscribed 37
sued 37
superficial 37
suppliers 37
talk@@ 37
tallest 37
texting 37
thering 37
tist 37
toads 37
tomy 37
tour@@ 37
traditionally 37
traff@@ 37
trekking 37
trembling 37
truths 37
ually 37
ule 37
unsuitable 37
vag@@ 37
valve 37
variation 37
varying 37
verry 37
voluntarily 37
vous 37
wallpaper 37
warranty 37
waters 37
weakened 37
webs 37
when@@ 37
wrapping 37
yrs 37
ywood 37
'' 36
--------@@ 36
.7 36
.ebscohost.com.libproxy1.nus.edu.sg/@@ 36
.sg/@@ 36
//ezinearticles.com/ 36
//www.p@@ 36
//www.singaporebudget.gov.sg/@@ 36
1/.html 36
14/@@ 36
157 36
20- 36
2007/0@@ 36
2009,from 36
2025 36
2pm 36
350 36
4&@@ 36
93 36
Aer@@ 36
Ah@@ 36
Asia@@ 36
Banana 36
COMM@@ 36
CS 36
Cheer 36
Chen 36
Chengdu 36
Cohen 36
Constitution 36
Consul@@ 36
Contrary 36
Dancing 36
Daniela 36
Dep@@ 36
Depending 36
Difference 36
Dig@@ 36
END 36
Emergency 36
FX 36
Figure 36
Flower 36
Four@@ 36
Fun 36
GIVE 36
GOING 36
GT 36
GU@@ 36
Gali@@ 36
Granada 36
Gump 36
Gy@@ 36
HER@@ 36
HIV 36
Historical 36
Hula 36
IQ 36
Il@@ 36
Improving 36
Including 36
Investi@@ 36
Isa@@ 36
Jessica 36
KE@@ 36
Kab@@ 36
Kal@@ 36
Knight 36
LOST 36
LSD 36
Lack 36
Languages 36
Las@@ 36
Leon@@ 36
MD 36
ML@@ 36
MR@@ 36
MY@@ 36
Mask 36
Matthew 36
Mei@@ 36
Meteorological 36
Metropolitan 36
Naka@@ 36
Oriental 36
Ou@@ 36
Part@@ 36
Peninsula 36
Pitt 36
Posi@@ 36
REFER@@ 36
Rap@@ 36
Rolling 36
Romans 36
Roy 36
SARS 36
SCHOOL 36
SHOPPING 36
SPUR 36
Scand@@ 36
Scho@@ 36
Single 36
Spr@@ 36
Stri@@ 36
Studios 36
Subway 36
Tsuyu 36
UNIC@@ 36
VEL@@ 36
WHICH 36
Warfarin 36
Warming 36
Welsh 36
Wide 36
YOURS 36
Yang@@ 36
Young@@ 36
Yoyogi 36
ZZ@@ 36
_ob 36
abstrac@@ 36
accented 36
accessory 36
adventurous 36
aggres@@ 36
ags 36
aircrafts 36
aka@@ 36
al/@@ 36
aler@@ 36
alisation 36
anded 36
answer@@ 36
apper@@ 36
architects 36
asp 36
assertive 36
assurance 36
ation_@@ 36
avenue 36
banquet 36
battles 36
bbing 36
bending 36
benefici@@ 36
biking 36
bilities 36
cannnot 36
carbon-@@ 36
carefree 36
challenger 36
chestnut 36
childcare 36
chri@@ 36
cion 36
cius 36
cleaners 36
clocks 36
colla@@ 36
concent@@ 36
conclud@@ 36
condo 36
conducive 36
congratulated 36
conjunction 36
constitu@@ 36
contradic@@ 36
crashes 36
crawling 36
curve 36
cutter 36
d. 36
debating 36
demonstrations 36
diagram 36
diction 36
dine 36
discharge 36
disclosing 36
disguise 36
disin@@ 36
donating 36
drugstore 36
edited 36
ehost@@ 36
ehouse 36
eia.doe.gov/@@ 36
encyclopedia@@ 36
english/@@ 36
entertained 36
entertainer 36
entertainments 36
ep 36
eschede@@ 36
establi@@ 36
evacuate 36
excluded 36
fermented 36
flourish 36
folder 36
football@@ 36
forcast 36
fraud 36
fulltext/@@ 36
furnitures 36
gazed 36
genetic-@@ 36
gover@@ 36
grill 36
guar@@ 36
hahahaha 36
herbal 36
hoon 36
housekeeping 36
html/@@ 36
iP@@ 36
ideology 36
ik@@ 36
implantable 36
implantation 36
implied 36
impres@@ 36
infringement 36
ingers 36
inheritance 36
injected 36
intriguing 36
intrud@@ 36
isnt 36
izakaya 36
jack@@ 36
jang 36
jun 36
kicking 36
kilo@@ 36
kingly 36
laps 36
licenses 36
locating 36
manufac@@ 36
means@@ 36
ment_@@ 36
merged 36
ming@@ 36
minimizing 36
miti@@ 36
monotonous 36
movi@@ 36
mud@@ 36
multicultural 36
natural@@ 36
neutral 36
nineteen 36
nonetheless 36
nostalgia 36
notorious 36
nut 36
oC 36
obli@@ 36
offenders 36
onist 36
optical 36
oxid@@ 36
p.nsf/WPDis/@@ 36
pandemic 36
paperwork 36
pati@@ 36
paved 36
pears 36
pedal 36
phobia 36
photoes 36
planetarium 36
pleas@@ 36
pops 36
post-@@ 36
priori@@ 36
prog@@ 36
purchases 36
ram@@ 36
re-employment 36
realism 36
reformed 36
refueling 36
registering 36
relied 36
repetitive 36
reproduce 36
resses 36
ret 36
retaining 36
ridden 36
robbery 36
room/@@ 36
rud@@ 36
s-of-@@ 36
scratched 36
screwed 36
securing 36
seg@@ 36
senior@@ 36
sett@@ 36
shield 36
shifting 36
sided 36
signing 36
simil@@ 36
simplify 36
skateboarding 36
sleepless 36
smog 36
soar 36
specifications 36
spellings 36
state-@@ 36
stereotype 36
stinky 36
stitu@@ 36
sumi 36
sunscreen 36
supplier 36
swi@@ 36
sympathetic 36
take@@ 36
tation@@ 36
transaction 36
transplan@@ 36
troubling 36
tsuk@@ 36
tutorials 36
uan 36
ultra@@ 36
unbrella 36
underestimated 36
updates 36
uri@@ 36
uts 36
vent@@ 36
vered 36
very-@@ 36
vibrant 36
vich 36
violet 36
warehouse 36
warmly 36
watt 36
wrongly 36
yam@@ 36
zumi 36
zzle 36
'Reserved 35
1975 35
1982 35
19:00 35
5cm 35
87 35
Agri@@ 35
Allah 35
Alternatively 35
Aquarium 35
Arri@@ 35
Assistance 35
Aug@@ 35
Avenue 35
Barack 35
Broadway 35
Bus@@ 35
Buses 35
Butler@@ 35
CAS@@ 35
COULD 35
Catalonia 35
Chan@@ 35
Chang@@ 35
Cola 35
Conan 35
Concer@@ 35
Cracow 35
Document@@ 35
EF 35
ENCE 35
Effect 35
Eleven 35
Facilities 35
Far 35
Filipinos 35
Flu@@ 35
Guy 35
Has@@ 35
Higashino 35
Hikaru 35
Improve 35
Jul 35
Kel@@ 35
Kelly 35
Kuwait 35
Lead-Cooled 35
Luckly 35
MIK@@ 35
MOST 35
MUST 35
Needs 35
News@@ 35
Official 35
Organi@@ 35
Plu@@ 35
Politics 35
Produc@@ 35
Qi@@ 35
Retrieve 35
SEN 35
SUSHI 35
Sem@@ 35
Serendi@@ 35
Soft 35
Success 35
TDL 35
Takao 35
Theater 35
Tong 35
Total 35
Tow@@ 35
Trains 35
Tuna 35
Tw@@ 35
VISA 35
View@@ 35
WHY 35
Walt 35
Wan 35
Wat@@ 35
Wu 35
YU@@ 35
Yuka 35
adhere 35
adulthood 35
advent 35
age-related 35
aisle 35
anics 35
answ@@ 35
anton 35
applause 35
archaeo@@ 35
arduous 35
arg@@ 35
assists 35
asu 35
atives 35
atom 35
attributes 35
author@@ 35
awsome 35
barbershop 35
birth@@ 35
boa@@ 35
bori 35
briefing 35
builds 35
camel 35
cann@@ 35
canvas 35
capacities 35
cavity 35
cello 35
chall@@ 35
championships 35
cogni@@ 35
compounds 35
conclusions 35
contented 35
contractor 35
copy@@ 35
counselling 35
crats 35
creators 35
damp 35
danc@@ 35
daug@@ 35
deser@@ 35
destined 35
detergent 35
dictronary 35
diplom@@ 35
disapointed 35
dries 35
dv@@ 35
dynamics 35
earnestly 35
eberg 35
eccentric 35
edule 35
embarra@@ 35
endeav@@ 35
entation 35
ention 35
environmental@@ 35
esse 35
essors 35
etiquette 35
evolve 35
extinct 35
eyed 35
fast-@@ 35
feminine 35
fit@@ 35
flavour 35
fluorescent 35
footprints 35
fraction 35
freezer 35
frend 35
frinds 35
fter 35
fting 35
fuly 35
furi@@ 35
gentlemen 35
gest 35
geting 35
gger 35
gig@@ 35
gossi@@ 35
gut 35
haku 35
hears 35
hou 35
hum 35
hydroelectric 35
idity 35
imperfect 35
impractical 35
indication 35
individuality 35
intends 35
intent 35
ints 35
intuition 35
invaluable 35
joints 35
justified 35
latent 35
lever 35
lighted 35
liter 35
lod@@ 35
mae 35
microphones 35
minced 35
minimise 35
minus 35
misleading 35
mmm 35
moisture 35
molecular 35
mond 35
money@@ 35
monit@@ 35
mug 35
nausea 35
navi@@ 35
nis 35
noting 35
objectively 35
ody 35
offence 35
oi 35
oki 35
oooooooo@@ 35
orderd 35
originality 35
ority 35
oto@@ 35
ounce 35
overcoming 35
ower 35
pellets 35
penny 35
permanently 35
pg 35
pharma@@ 35
pot@@ 35
presidents 35
pricing 35
progres@@ 35
progressed 35
pronouncing 35
prosp@@ 35
rant 35
rati@@ 35
recharge 35
recoll@@ 35
renovation 35
repu@@ 35
rer 35
reset 35
rests 35
rethink 35
reuse 35
revi@@ 35
revolution@@ 35
robbers 35
roo@@ 35
rub 35
sacrifices 35
scares 35
scol@@ 35
sens 35
settling 35
sic 35
similarly 35
sliding 35
smar@@ 35
spilled 35
spin 35
starters 35
stup@@ 35
superiority 35
surve@@ 35
taiwan 35
technicians 35
tedly 35
terrifying 35
ticide 35
ticism 35
tionary 35
tough@@ 35
track@@ 35
trainers 35
transferring 35
transi@@ 35
tro 35
tter@@ 35
twist 35
ubiquitous 35
ument@@ 35
unimportant 35
usefulness 35
vanish 35
videogames 35
vis 35
warnings 35
weary 35
wicked 35
workplaces 35
yakisoba 35
yea 35
young@@ 35
zen@@ 35
zy@@ 35
,00@@ 34
,2004 34
.ca/@@ 34
.com/article@@ 34
//www.ac@@ 34
//www.bca.gov.sg/@@ 34
//www.business@@ 34
//www.d@@ 34
//www.hdb.gov.sg/fi10/fi1020@@ 34
//www.nature.com/@@ 34
//www.world-nuclear.org/info/inf0@@ 34
/04/@@ 34
/pub@@ 34
03@@ 34
100km 34
10am 34
12/@@ 34
146 34
1_@@ 34
2005/@@ 34
2251&parentname 34
240@@ 34
250@@ 34
30km 34
30min 34
3th 34
7years 34
84@@ 34
8am 34
9&_@@ 34
A-@@ 34
A1Story@@ 34
AGAIN 34
Adri@@ 34
Alter@@ 34
Alternative 34
Amazing 34
B6@@ 34
Berkeley 34
Brea@@ 34
Business@@ 34
CET4 34
CPA 34
CSI 34
CT 34
Chrismas 34
Content 34
Critical 34
DD@@ 34
DID 34
DON'T 34
Dalian 34
EJ3010@@ 34
EST 34
Edit@@ 34
Eg@@ 34
Eight 34
Elder@@ 34
Energy@@ 34
Examples 34
Facing 34
Feburary 34
Fighters 34
Finished 34
G.@@ 34
GenIV@@ 34
Goh 34
Graham 34
Greenpeace 34
Greetings 34
Greg 34
Hair 34
Heathcliff 34
Hong@@ 34
Hyatt 34
ICT 34
ING@@ 34
IO 34
Influenza 34
Intelligence 34
Iranian 34
Kaohsiung 34
Kiyomizu 34
Lab@@ 34
Low 34
Ltd 34
Mediterranean 34
Mem@@ 34
Memory 34
Met@@ 34
Mister 34
Mohamed 34
Mohammad 34
Mori 34
Murphy 34
NEW@@ 34
NGO 34
NL@@ 34
Nation 34
Ning@@ 34
OBON 34
ONG 34
Oni@@ 34
PAS@@ 34
PLEASE 34
Pandora 34
Pasta 34
Perth 34
Ph.D. 34
Poc@@ 34
Pride 34
Radio-@@ 34
Rakugo 34
Redemption 34
Rog@@ 34
SAN 34
SHOULD 34
Sakamoto 34
Setsubun 34
Sharp 34
Shawshank 34
Sheldon 34
Speak 34
Spencer 34
Ss 34
Statue 34
Sto@@ 34
Sukiyaki 34
THING 34
Tama 34
Tenerife 34
Tianjin 34
Tibet 34
Tucek 34
Umeda 34
Vide@@ 34
Village 34
WRITING 34
Wild 34
Wo@@ 34
Works 34
Wright 34
Yakitori 34
ablo 34
achive 34
adjustment 34
admiration 34
adopts 34
advisory 34
ailments 34
aissance 34
amuse 34
anium@@ 34
applicant 34
apricot 34
arday 34
aring 34
ark 34
arthritis 34
ary/@@ 34
ases 34
asiaone.com/@@ 34
attentive 34
attribute 34
authorized 34
aways 34
beautifull 34
bin/@@ 34
biography 34
blogspot@@ 34
blooms 34
bonito 34
boundary 34
bowls 34
brakes 34
broadca@@ 34
buck 34
buster 34
caff@@ 34
cali@@ 34
carbohydrates 34
care-@@ 34
caregiver 34
catho@@ 34
certain@@ 34
ch-@@ 34
checkups 34
cheeks 34
collea@@ 34
comb 34
communiti@@ 34
competed 34
competitor 34
comunication 34
congested 34
conquered 34
contribu@@ 34
contributors 34
coordination 34
cow@@ 34
cuse 34
d,@@ 34
daily.com/@@ 34
dead@@ 34
debat@@ 34
debts 34
defen@@ 34
depicted 34
desc@@ 34
diced 34
dier 34
dim@@ 34
dimensional 34
diplomatic 34
disaster@@ 34
dispu@@ 34
doses 34
dou 34
enforcement 34
engine@@ 34
enrichment 34
epi@@ 34
er/@@ 34
eva 34
exclude 34
execution 34
expire 34
exploited 34
exploiting 34
eys 34
flow@@ 34
follower 34
font 34
footsteps 34
franchise 34
fright 34
gang@@ 34
gaze 34
gence 34
gf 34
gish 34
gos 34
gre 34
grou@@ 34
guo 34
heartbeat 34
heath 34
hol 34
humane 34
iKnow 34
iPhone@@ 34
impending 34
incorrectly 34
inflammation 34
intensively 34
inventor@@ 34
invoice 34
iously 34
istic 34
itor 34
jury 34
kilos 34
kindle 34
lander 34
launching 34
lest 34
liberty 34
lica 34
ligraphy 34
lily 34
logies 34
london 34
lowed 34
lum@@ 34
lump 34
lunchbox 34
mai 34
margin@@ 34
marketed 34
md5 34
mentor 34
microwaves 34
mies 34
ministry 34
mit.edu/@@ 34
moderately 34
mu 34
nationwide 34
necc@@ 34
nega@@ 34
nerd 34
nomal 34
[...]
